{
  "version": "1.0",
  "truncation": null,
  "padding": null,
  "added_tokens": [
    {
      "id": 0,
      "content": "[PAD]",
      "single_word": false,
      "lstrip": false,
      "rstrip": false,
      "normalized": false,
      "special": true
    },
    {
      "id": 1,
      "content": "[UNK]",
      "single_word": false,
      "lstrip": false,
      "rstrip": false,
      "normalized": false,
      "special": true
    },
    {
      "id": 2,
      "content": "[CLS]",
      "single_word": false,
      "lstrip": false,
      "rstrip": false,
      "normalized": false,
      "special": true
    }
  ],
  "normalizer": {
    "type": "Sequence",
    "normalizers": [
      {
        "type": "NFKC"
      },
      {
        "type": "Lowercase"
      }
    ]
  },
  "pre_tokenizer": {
    "type": "ByteLevel",
    "add_prefix_space": false,
    "trim_offsets": true,
    "use_regex": true
  },
  "post_processor": null,
  "decoder": {
    "type": "ByteLevel",
    "add_prefix_space": true,
    "trim_offsets": true,
    "use_regex": true
  },
  "model": {
    "type": "BPE",
    "dropout": null,
    "unk_token": "[UNK]",
    "continuing_subword_prefix": null,
    "end_of_word_suffix": null,
    "fuse_unk": false,
    "byte_fallback": false,
    "ignore_merges": false,
    "vocab": {
      "[PAD]": 0,
      "[UNK]": 1,
      "[CLS]": 2,
      "!": 3,
      "\"": 4,
      "#": 5,
      "$": 6,
      "%": 7,
      "&": 8,
      "'": 9,
      "(": 10,
      ")": 11,
      "*": 12,
      "+": 13,
      ",": 14,
      "-": 15,
      ".": 16,
      "/": 17,
      "0": 18,
      "1": 19,
      "2": 20,
      "3": 21,
      "4": 22,
      "5": 23,
      "6": 24,
      "7": 25,
      "8": 26,
      "9": 27,
      ":": 28,
      ";": 29,
      "<": 30,
      "=": 31,
      ">": 32,
      "?": 33,
      "@": 34,
      "A": 35,
      "B": 36,
      "C": 37,
      "D": 38,
      "E": 39,
      "F": 40,
      "G": 41,
      "H": 42,
      "I": 43,
      "J": 44,
      "K": 45,
      "L": 46,
      "M": 47,
      "N": 48,
      "O": 49,
      "P": 50,
      "Q": 51,
      "R": 52,
      "S": 53,
      "T": 54,
      "U": 55,
      "V": 56,
      "W": 57,
      "X": 58,
      "Y": 59,
      "Z": 60,
      "[": 61,
      "\\": 62,
      "]": 63,
      "^": 64,
      "_": 65,
      "`": 66,
      "a": 67,
      "b": 68,
      "c": 69,
      "d": 70,
      "e": 71,
      "f": 72,
      "g": 73,
      "h": 74,
      "i": 75,
      "j": 76,
      "k": 77,
      "l": 78,
      "m": 79,
      "n": 80,
      "o": 81,
      "p": 82,
      "q": 83,
      "r": 84,
      "s": 85,
      "t": 86,
      "u": 87,
      "v": 88,
      "w": 89,
      "x": 90,
      "y": 91,
      "z": 92,
      "{": 93,
      "|": 94,
      "}": 95,
      "~": 96,
      "¡": 97,
      "¢": 98,
      "£": 99,
      "¤": 100,
      "¥": 101,
      "¦": 102,
      "§": 103,
      "¨": 104,
      "©": 105,
      "ª": 106,
      "«": 107,
      "¬": 108,
      "®": 109,
      "¯": 110,
      "°": 111,
      "±": 112,
      "²": 113,
      "³": 114,
      "´": 115,
      "µ": 116,
      "¶": 117,
      "·": 118,
      "¸": 119,
      "¹": 120,
      "º": 121,
      "»": 122,
      "¼": 123,
      "½": 124,
      "¾": 125,
      "¿": 126,
      "À": 127,
      "Á": 128,
      "Â": 129,
      "Ã": 130,
      "Ä": 131,
      "Å": 132,
      "Æ": 133,
      "Ç": 134,
      "È": 135,
      "É": 136,
      "Ê": 137,
      "Ë": 138,
      "Ì": 139,
      "Í": 140,
      "Î": 141,
      "Ï": 142,
      "Ð": 143,
      "Ñ": 144,
      "Ò": 145,
      "Ó": 146,
      "Ô": 147,
      "Õ": 148,
      "Ö": 149,
      "×": 150,
      "Ø": 151,
      "Ù": 152,
      "Ú": 153,
      "Û": 154,
      "Ü": 155,
      "Ý": 156,
      "Þ": 157,
      "ß": 158,
      "à": 159,
      "á": 160,
      "â": 161,
      "ã": 162,
      "ä": 163,
      "å": 164,
      "æ": 165,
      "ç": 166,
      "è": 167,
      "é": 168,
      "ê": 169,
      "ë": 170,
      "ì": 171,
      "í": 172,
      "î": 173,
      "ï": 174,
      "ð": 175,
      "ñ": 176,
      "ò": 177,
      "ó": 178,
      "ô": 179,
      "õ": 180,
      "ö": 181,
      "÷": 182,
      "ø": 183,
      "ù": 184,
      "ú": 185,
      "û": 186,
      "ü": 187,
      "ý": 188,
      "þ": 189,
      "ÿ": 190,
      "Ā": 191,
      "ā": 192,
      "Ă": 193,
      "ă": 194,
      "Ą": 195,
      "ą": 196,
      "Ć": 197,
      "ć": 198,
      "Ĉ": 199,
      "ĉ": 200,
      "Ċ": 201,
      "ċ": 202,
      "Č": 203,
      "č": 204,
      "Ď": 205,
      "ď": 206,
      "Đ": 207,
      "đ": 208,
      "Ē": 209,
      "ē": 210,
      "Ĕ": 211,
      "ĕ": 212,
      "Ė": 213,
      "ė": 214,
      "Ę": 215,
      "ę": 216,
      "Ě": 217,
      "ě": 218,
      "Ĝ": 219,
      "ĝ": 220,
      "Ğ": 221,
      "ğ": 222,
      "Ġ": 223,
      "ġ": 224,
      "Ģ": 225,
      "ģ": 226,
      "Ĥ": 227,
      "ĥ": 228,
      "Ħ": 229,
      "ħ": 230,
      "Ĩ": 231,
      "ĩ": 232,
      "Ī": 233,
      "ī": 234,
      "Ĭ": 235,
      "ĭ": 236,
      "Į": 237,
      "į": 238,
      "İ": 239,
      "ı": 240,
      "Ĳ": 241,
      "ĳ": 242,
      "Ĵ": 243,
      "ĵ": 244,
      "Ķ": 245,
      "ķ": 246,
      "ĸ": 247,
      "Ĺ": 248,
      "ĺ": 249,
      "Ļ": 250,
      "ļ": 251,
      "Ľ": 252,
      "ľ": 253,
      "Ŀ": 254,
      "ŀ": 255,
      "Ł": 256,
      "ł": 257,
      "Ń": 258,
      "Ġt": 259,
      "Ġa": 260,
      "he": 261,
      "in": 262,
      "re": 263,
      "Ġw": 264,
      "Ġthe": 265,
      "Ġs": 266,
      "Ġo": 267,
      "is": 268,
      "at": 269,
      "Ġc": 270,
      "er": 271,
      "Ġb": 272,
      "ou": 273,
      "on": 274,
      "it": 275,
      "en": 276,
      "an": 277,
      "Ġp": 278,
      "Ġm": 279,
      "Ġan": 280,
      "ing": 281,
      "or": 282,
      "Ġf": 283,
      "es": 284,
      "Ġh": 285,
      "Ġto": 286,
      "Ġth": 287,
      "Ġd": 288,
      "ed": 289,
      "al": 290,
      "Ġand": 291,
      "Ġof": 292,
      "Ġin": 293,
      "le": 294,
      "Ġn": 295,
      "ar": 296,
      "ic": 297,
      "om": 298,
      "as": 299,
      "Ġg": 300,
      "Ġl": 301,
      "ll": 302,
      "Ġy": 303,
      "ot": 304,
      "Ġis": 305,
      "us": 306,
      "Ġbe": 307,
      "Ġi": 308,
      "Ġe": 309,
      "ion": 310,
      "Ġwh": 311,
      "Ġyou": 312,
      "Ġthat": 313,
      "ve": 314,
      "ly": 315,
      "Ġre": 316,
      "ent": 317,
      "ac": 318,
      "ow": 319,
      "ut": 320,
      "Ġit": 321,
      "..": 322,
      "Ġr": 323,
      "id": 324,
      "ld": 325,
      "Ġhe": 326,
      "Ġon": 327,
      "Ġfor": 328,
      "im": 329,
      "st": 330,
      "ver": 331,
      "ay": 332,
      "ig": 333,
      "Ġha": 334,
      "se": 335,
      "Ġare": 336,
      "Ġst": 337,
      "op": 338,
      "ur": 339,
      "ol": 340,
      "Ġwe": 341,
      "et": 342,
      "am": 343,
      "Ġnot": 344,
      "ist": 345,
      "ill": 346,
      "ad": 347,
      "un": 348,
      "ir": 349,
      "Ġas": 350,
      "Ġpr": 351,
      "ith": 352,
      "ke": 353,
      "ct": 354,
      "'s": 355,
      "Ġtr": 356,
      "Ġj": 357,
      "um": 358,
      "Ġwith": 359,
      "ch": 360,
      "the": 361,
      "ould": 362,
      "Ġli": 363,
      "ce": 364,
      "Ġdo": 365,
      "'t": 366,
      "up": 367,
      "Ġch": 368,
      "ers": 369,
      "Ġthey": 370,
      "Ġ\"": 371,
      "Ġhave": 372,
      "ate": 373,
      "Ġk": 374,
      "th": 375,
      "ation": 376,
      "Ġcon": 377,
      "and": 378,
      "Ġde": 379,
      "Ġgo": 380,
      "Ġwas": 381,
      "Ġse": 382,
      "ul": 383,
      "il": 384,
      "ht": 385,
      "Ġor": 386,
      "Ġab": 387,
      "Ġthis": 388,
      "Ġwho": 389,
      "Ġcom": 390,
      "ust": 391,
      "ter": 392,
      "Ġne": 393,
      "Ġv": 394,
      "ore": 395,
      "Ġall": 396,
      "ess": 397,
      "Ġat": 398,
      "Ġso": 399,
      "Ġpe": 400,
      "Ġsh": 401,
      "Ġcan": 402,
      "Ġfr": 403,
      "out": 404,
      "ant": 405,
      "ople": 406,
      "est": 407,
      "ity": 408,
      "Ġpeople": 409,
      "ge": 410,
      "oun": 411,
      "Ġle": 412,
      "ack": 413,
      "ment": 414,
      "od": 415,
      "ite": 416,
      "Ġbut": 417,
      "ump": 418,
      "Ġwhat": 419,
      "ight": 420,
      "iv": 421,
      "res": 422,
      "Ġex": 423,
      "Ġby": 424,
      "Ġtheir": 425,
      "ain": 426,
      "em": 427,
      "Ġal": 428,
      "if": 429,
      "Ġun": 430,
      "Ġhis": 431,
      "Ġwom": 432,
      "one": 433,
      "ally": 434,
      "Ġabout": 435,
      "ome": 436,
      "Ġyour": 437,
      "ab": 438,
      "ost": 439,
      "Ġwor": 440,
      "tr": 441,
      "Ġman": 442,
      "use": 443,
      "pe": 444,
      "end": 445,
      "oc": 446,
      "ort": 447,
      "Ġwould": 448,
      "Ġwill": 449,
      "ans": 450,
      "ive": 451,
      "Ġfrom": 452,
      "ous": 453,
      "Ġany": 454,
      "os": 455,
      "ies": 456,
      "her": 457,
      "Ġhas": 458,
      "Ġme": 459,
      "Ġwhe": 460,
      "qu": 461,
      "Ġjust": 462,
      "Ġsu": 463,
      "ie": 464,
      "Ġtrump": 465,
      "...": 466,
      "ob": 467,
      "very": 468,
      "Ġlike": 469,
      "Ġam": 470,
      "ĠĠ": 471,
      "Ġif": 472,
      "ther": 473,
      "Ġkn": 474,
      "Ġbl": 475,
      "red": 476,
      "art": 477,
      "ake": 478,
      "Ġ(": 479,
      "ak": 480,
      "Ġout": 481,
      "Ġus": 482,
      "Ġthem": 483,
      "ud": 484,
      "Ġthere": 485,
      "ca": 486,
      "Ġag": 487,
      "ren": 488,
      "our": 489,
      "Ġup": 490,
      "pp": 491,
      "Ġdon": 492,
      "ose": 493,
      "Ġmore": 494,
      "all": 495,
      "Ġcl": 496,
      "Ġno": 497,
      "ame": 498,
      "Ġone": 499,
      "Ġwhite": 500,
      "Ġwomen": 501,
      "fe": 502,
      "ear": 503,
      "ard": 504,
      "Ġget": 505,
      "Ġknow": 506,
      "Ġint": 507,
      "Ġother": 508,
      "act": 509,
      "ink": 510,
      "Ġour": 511,
      "ag": 512,
      "Ġwere": 513,
      "Ġgr": 514,
      "Ġar": 515,
      "ong": 516,
      "Ġmy": 517,
      "Ġthan": 518,
      "Ġdis": 519,
      "ap": 520,
      "Ġsup": 521,
      "Ġsome": 522,
      "Ġhow": 523,
      "Ġev": 524,
      "ib": 525,
      "cause": 526,
      "ok": 527,
      "ult": 528,
      "Ġen": 529,
      "ci": 530,
      "ind": 531,
      "ast": 532,
      "og": 533,
      "oug": 534,
      "ian": 535,
      "wh": 536,
      "pl": 537,
      "ish": 538,
      "Ġbecause": 539,
      "Ġwhen": 540,
      "âĢ": 541,
      "pt": 542,
      "Ġad": 543,
      "port": 544,
      "Ġsay": 545,
      "ath": 546,
      "ia": 547,
      "iz": 548,
      "ated": 549,
      "Ġbeen": 550,
      "ice": 551,
      "Ġyear": 552,
      "Ġ-": 553,
      "Ġright": 554,
      "ue": 555,
      "Ġcr": 556,
      "der": 557,
      "so": 558,
      "ure": 559,
      "Ġthink": 560,
      "Ġpl": 561,
      "Ġ1": 562,
      "int": 563,
      "Ġshe": 564,
      "Ġim": 565,
      "ime": 566,
      "Ġdoes": 567,
      "Ġshould": 568,
      "Ġcoun": 569,
      "Ġlo": 570,
      "bl": 571,
      "ions": 572,
      "Ġher": 573,
      "ound": 574,
      "Ġover": 575,
      "Ġrac": 576,
      "Ġres": 577,
      "Ġevery": 578,
      "hing": 579,
      "lim": 580,
      "ine": 581,
      "ary": 582,
      "Ġonly": 583,
      "Ġsa": 584,
      "Ġpol": 585,
      "ical": 586,
      "Ġblack": 587,
      "el": 588,
      "ious": 589,
      "Ġdid": 590,
      "ich": 591,
      "Ġte": 592,
      "ence": 593,
      "Ġmus": 594,
      "Ġhim": 595,
      "Ġhad": 596,
      "Ġact": 597,
      "eric": 598,
      "....": 599,
      "Ġmany": 600,
      "aw": 601,
      "are": 602,
      "ual": 603,
      "ber": 604,
      "Ġwant": 605,
      "Ġsp": 606,
      "Ġoff": 607,
      "00": 608,
      "age": 609,
      "lect": 610,
      "Ġagain": 611,
      "we": 612,
      "Ġpre": 613,
      "Ġbeing": 614,
      "ks": 615,
      "Ġaf": 616,
      "Ġpres": 617,
      "Ġthose": 618,
      "Ġ2": 619,
      "Ġac": 620,
      "able": 621,
      "Ġmuslim": 622,
      "ug": 623,
      "sel": 624,
      "ild": 625,
      "Ġneed": 626,
      "ew": 627,
      "Ġinc": 628,
      "ree": 629,
      "ass": 630,
      "ists": 631,
      "ile": 632,
      "Ġwr": 633,
      "ens": 634,
      "Ġpart": 635,
      "Ġnow": 636,
      "ple": 637,
      "Ġbr": 638,
      "Ġvot": 639,
      ".\"": 640,
      "Ġqu": 641,
      "Ġthing": 642,
      "Ġgu": 643,
      "Ġameric": 644,
      "rist": 645,
      "ubl": 646,
      "Ġtime": 647,
      "Ġthese": 648,
      "ism": 649,
      "Ġpo": 650,
      "Ġper": 651,
      "own": 652,
      "Ġsee": 653,
      "Ġgood": 654,
      "ough": 655,
      "ĠĊ": 656,
      "Ġcountr": 657,
      "ting": 658,
      "Ġeven": 659,
      "ublic": 660,
      "reat": 661,
      "ory": 662,
      "Ġwork": 663,
      "way": 664,
      "Ġway": 665,
      "de": 666,
      "Ġrel": 667,
      "oy": 668,
      "Ġwhy": 669,
      "ace": 670,
      "uc": 671,
      "uch": 672,
      "Ġmake": 673,
      "Ġrep": 674,
      "ide": 675,
      "ress": 676,
      "Ġyears": 677,
      "'re": 678,
      "Ġbet": 679,
      "ident": 680,
      "Ġpro": 681,
      "wn": 682,
      "Ġob": 683,
      "Ġchrist": 684,
      "Ġdr": 685,
      "Ġinto": 686,
      "ves": 687,
      "Ġwhich": 688,
      "Ġnew": 689,
      "Ġatt": 690,
      "ors": 691,
      "ict": 692,
      "Ġchur": 693,
      "ire": 694,
      "Ġspe": 695,
      "Ġmost": 696,
      "Ġfa": 697,
      "ick": 698,
      "Ġstate": 699,
      "ial": 700,
      "Ġsame": 701,
      "olic": 702,
      "ry": 703,
      "ving": 704,
      "Ġthen": 705,
      "ance": 706,
      "other": 707,
      "ade": 708,
      "ip": 709,
      "Ġmuch": 710,
      "Ġcomm": 711,
      "Ġwoman": 712,
      "for": 713,
      "ons": 714,
      "ase": 715,
      "ign": 716,
      "Ġprob": 717,
      "ians": 718,
      "Ġpers": 719,
      "Ġbel": 720,
      "ff": 721,
      "Ġown": 722,
      "Ġdem": 723,
      "Ġcanad": 724,
      "rent": 725,
      "atholic": 726,
      "Ġchurch": 727,
      "ocr": 728,
      "ates": 729,
      "Ġsex": 730,
      "ep": 731,
      "rem": 732,
      "ale": 733,
      "Ġalso": 734,
      "Ġcould": 735,
      "Ġback": 736,
      "Ġmen": 737,
      "Ġsupport": 738,
      "ty": 739,
      "ull": 740,
      "Ġworld": 741,
      "be": 742,
      "Ġser": 743,
      "Ġter": 744,
      "alk": 745,
      "lem": 746,
      "Ġelect": 747,
      "Ġhere": 748,
      "vern": 749,
      "Ġlaw": 750,
      "you": 751,
      "Ġcons": 752,
      "Ġunder": 753,
      "pect": 754,
      "Ġgovern": 755,
      "ied": 756,
      "pr": 757,
      "ved": 758,
      "Ġsaid": 759,
      "per": 760,
      "Ġvery": 761,
      "Ġtw": 762,
      "Ġcatholic": 763,
      "arr": 764,
      "Ġperson": 765,
      "Ġbelie": 766,
      "Ġkill": 767,
      "Ġlook": 768,
      "ope": 769,
      "Ġpresident": 770,
      "ft": 771,
      "Ġcour": 772,
      "Ġrem": 773,
      "self": 774,
      "az": 775,
      "ful": 776,
      "Ġcall": 777,
      "Ġdec": 778,
      "Ġnever": 779,
      "ily": 780,
      "lam": 781,
      "Ġta": 782,
      "itt": 783,
      "Ġcomment": 784,
      "cr": 785,
      "Ġapp": 786,
      "Ġput": 787,
      "Ġmay": 788,
      "als": 789,
      "Ġem": 790,
      "Ġreal": 791,
      "Ġass": 792,
      "Ġgoing": 793,
      "Ġagainst": 794,
      "'m": 795,
      "ying": 796,
      "Ġfact": 797,
      "Ġchild": 798,
      "ations": 799,
      "Ġafter": 800,
      "con": 801,
      "less": 802,
      "ative": 803,
      "Ġfir": 804,
      "ible": 805,
      "--": 806,
      "ood": 807,
      "Ġbu": 808,
      "cept": 809,
      "Ġcountry": 810,
      "!!": 811,
      "urn": 812,
      "Ġcontr": 813,
      "Ġacc": 814,
      "ise": 815,
      "Ġstr": 816,
      "ĠĠĊ": 817,
      "Ġpolit": 818,
      "Ġgovernment": 819,
      "ool": 820,
      "ually": 821,
      "Ġlet": 822,
      "ect": 823,
      "te": 824,
      "Ġcor": 825,
      "Ġinv": 826,
      "Ġlong": 827,
      "Ġfirst": 828,
      "Ġ'": 829,
      "Ġtoo": 830,
      "thing": 831,
      "Ġwhere": 832,
      "fore": 833,
      "ating": 834,
      "Ġbig": 835,
      "Ġdif": 836,
      "ics": 837,
      "Ġsoci": 838,
      "not": 839,
      "vers": 840,
      "Ġcomp": 841,
      "Ġproblem": 842,
      "gn": 843,
      "Ġreg": 844,
      "ower": 845,
      "Ġhapp": 846,
      "Ġrelig": 847,
      "Ġuse": 848,
      "Ġsch": 849,
      "ang": 850,
      "Ġpost": 851,
      "Ġfe": 852,
      "Ġind": 853,
      "ents": 854,
      "uth": 855,
      "Ġwell": 856,
      "Ġcont": 857,
      "tic": 858,
      "Ġsuch": 859,
      "what": 860,
      "oh": 861,
      "Ġment": 862,
      "alth": 863,
      "Ġlife": 864,
      "oney": 865,
      "Ġimm": 866,
      "ps": 867,
      "Ġco": 868,
      "Ġbas": 869,
      "aking": 870,
      "Ġinte": 871,
      "Ġhate": 872,
      "Ġpoint": 873,
      "Ġtax": 874,
      "Ġtalk": 875,
      "ange": 876,
      "Ġits": 877,
      "this": 878,
      "tern": 879,
      "ives": 880,
      "Ġbetter": 881,
      "ah": 882,
      "cy": 883,
      "ning": 884,
      "Ġcle": 885,
      "Ġmat": 886,
      "Ġmade": 887,
      "Ġfam": 888,
      "Ġgay": 889,
      "Ġiss": 890,
      "Ġreally": 891,
      "Ġdef": 892,
      "ock": 893,
      "Ġracist": 894,
      "Ġmuslims": 895,
      "ues": 896,
      "Ġsim": 897,
      "Ġislam": 898,
      "stand": 899,
      "Ġprot": 900,
      "ail": 901,
      "ror": 902,
      "Ġtake": 903,
      "hed": 904,
      "ition": 905,
      "Ġanother": 906,
      "Ġdes": 907,
      "Ġday": 908,
      "igh": 909,
      "igr": 910,
      "upid": 911,
      "oss": 912,
      "Ġgrou": 913,
      "âĢĻ": 914,
      "Ġtell": 915,
      "Ġguy": 916,
      "la": 917,
      "Ġke": 918,
      "Ġcol": 919,
      "Ġmoney": 920,
      "Ġgen": 921,
      "Ġwhile": 922,
      "Ġref": 923,
      "imes": 924,
      "Ġstill": 925,
      "Ġliber": 926,
      "Ġcanada": 927,
      "ocrat": 928,
      "\".": 929,
      "get": 930,
      "ro": 931,
      "Ġbo": 932,
      "Ġmill": 933,
      "Ġfem": 934,
      "Ġdown": 935,
      "Ġbefore": 936,
      "Ġgod": 937,
      "Ġdoesn": 938,
      "rest": 939,
      "Ġwon": 940,
      "Ġpa": 941,
      "Ġel": 942,
      "Ġincl": 943,
      "??": 944,
      "Ġsy": 945,
      "Ġold": 946,
      "iss": 947,
      "Ġbus": 948,
      "Ġpar": 949,
      "Ġpay": 950,
      "ord": 951,
      "Ġinst": 952,
      "Ġnation": 953,
      "Ġign": 954,
      "imin": 955,
      "ific": 956,
      "ought": 957,
      "Ġwrong": 958,
      "Ġrepublic": 959,
      "Ġdiffe": 960,
      "ven": 961,
      "Ġop": 962,
      "Ġless": 963,
      "Ġread": 964,
      "ach": 965,
      "Ġstop": 966,
      "Ġstupid": 967,
      "Ġnothing": 968,
      "Ġjew": 969,
      "Ġseem": 970,
      "akes": 971,
      "Ġclint": 972,
      "Ġthings": 973,
      "Ġchristian": 974,
      "ra": 975,
      "Ġent": 976,
      "Ġsc": 977,
      "Ġsin": 978,
      "Ġthr": 979,
      "Ġins": 980,
      "Ġever": 981,
      "Ġrec": 982,
      "Ġleft": 983,
      "Ġsure": 984,
      "iew": 985,
      "Ġdidn": 986,
      "uct": 987,
      "Ġu": 988,
      "ather": 989,
      "Ġhist": 990,
      "Ġcome": 991,
      "Ġclinton": 992,
      "ove": 993,
      "whe": 994,
      "Ġsom": 995,
      "Ġpublic": 996,
      "ority": 997,
      "Ġhum": 998,
      "Ġro": 999,
      "Ġhel": 1000,
      "Ġsuprem": 1001,
      "form": 1002,
      "Ġschool": 1003,
      "'ve": 1004,
      "yp": 1005,
      "Ġbot": 1006,
      "Ġfl": 1007,
      "ason": 1008,
      "Ġmean": 1009,
      "Ġdemocrat": 1010,
      "Ġbelieve": 1011,
      "Ġimmigr": 1012,
      "ces": 1013,
      "ert": 1014,
      "Ġfar": 1015,
      "uss": 1016,
      "ution": 1017,
      "Ġhealth": 1018,
      "Ġ19": 1019,
      "Ġchildren": 1020,
      "Ġsomet": 1021,
      "Ġbill": 1022,
      "ense": 1023,
      "Ġmed": 1024,
      "Ġmar": 1025,
      "Ġmust": 1026,
      "Ġhand": 1027,
      "Ġid": 1028,
      "Ġjob": 1029,
      "Ġartic": 1030,
      "com": 1031,
      "no": 1032,
      "ts": 1033,
      "Ġcare": 1034,
      "its": 1035,
      "trump": 1036,
      "Ġrights": 1037,
      "Ġeveryone": 1038,
      "Ġtwo": 1039,
      "iend": 1040,
      "ne": 1041,
      "oll": 1042,
      "Ġ&": 1043,
      "Ġche": 1044,
      "Ġcult": 1045,
      "eral": 1046,
      "Ġfun": 1047,
      "Ġgot": 1048,
      "Ġgreat": 1049,
      "Ġrun": 1050,
      "Ġshow": 1051,
      "Ġanyone": 1052,
      "Ġattack": 1053,
      "Ġterror": 1054,
      "Ġpower": 1055,
      "Ġmin": 1056,
      "Ġmur": 1057,
      "Ġresp": 1058,
      "ways": 1059,
      "Ġunderstand": 1060,
      "01": 1061,
      "les": 1062,
      "man": 1063,
      "ply": 1064,
      "ti": 1065,
      "ama": 1066,
      "Ġdoing": 1067,
      "ility": 1068,
      "ants": 1069,
      "Ġleg": 1070,
      "Ġvote": 1071,
      "Ġamerica": 1072,
      "Ġcourse": 1073,
      "Ġinclud": 1074,
      "day": 1075,
      "ness": 1076,
      "Ġaway": 1077,
      "Ġsm": 1078,
      "Ġph": 1079,
      "ars": 1080,
      "ically": 1081,
      "Ġlast": 1082,
      "Ġreason": 1083,
      "Ġstand": 1084,
      "olog": 1085,
      "Ġalways": 1086,
      "âĢľ": 1087,
      "Ġhappen": 1088,
      "come": 1089,
      "ned": 1090,
      "to": 1091,
      "vious": 1092,
      "ither": 1093,
      "leg": 1094,
      "Ġgl": 1095,
      "Ġlot": 1096,
      "Ġbeh": 1097,
      "ody": 1098,
      "ize": 1099,
      "ave": 1100,
      "cc": 1101,
      "fl": 1102,
      "Ġed": 1103,
      "Ġsur": 1104,
      "ised": 1105,
      "Ġhome": 1106,
      "âĢĿ": 1107,
      "Ġmatter": 1108,
      "Ġhistory": 1109,
      "xt": 1110,
      "Ġ$": 1111,
      "Ġend": 1112,
      "iness": 1113,
      "Ġca": 1114,
      "Ġmight": 1115,
      "Ġhom": 1116,
      "Ġprom": 1117,
      "iven": 1118,
      "Ġsub": 1119,
      "Ġadd": 1120,
      "Ġnews": 1121,
      "Ġinterest": 1122,
      "Ġkeep": 1123,
      "Ġboth": 1124,
      "Ġsomething": 1125,
      "ced": 1126,
      "iol": 1127,
      "ward": 1128,
      "Ġ5": 1129,
      "Ġap": 1130,
      "erv": 1131,
      "Ġban": 1132,
      "ities": 1133,
      "Ġnor": 1134,
      "idd": 1135,
      "Ġkind": 1136,
      "Ġanything": 1137,
      "Ġsomeone": 1138,
      "Ġreligion": 1139,
      "Ġhelp": 1140,
      ").": 1141,
      "aj": 1142,
      "bers": 1143,
      "ck": 1144,
      "oot": 1145,
      "pa": 1146,
      "Ġ3": 1147,
      "Ġ4": 1148,
      "read": 1149,
      "Ġciv": 1150,
      "Ġmale": 1151,
      "Ġear": 1152,
      "ety": 1153,
      "Ġprop": 1154,
      "Ġwithout": 1155,
      "Ġchar": 1156,
      "Ġdeal": 1157,
      "Ġcomple": 1158,
      "Ġexam": 1159,
      "Ġcontin": 1160,
      "Ġsupremac": 1161,
      "av": 1162,
      "hip": 1163,
      "ng": 1164,
      "ric": 1165,
      "Ġmon": 1166,
      "Ġmor": 1167,
      "esus": 1168,
      "Ġide": 1169,
      "Ġask": 1170,
      "Ġtrans": 1171,
      "Ġjud": 1172,
      "Ġallow": 1173,
      "Ġfriend": 1174,
      "fect": 1175,
      "Ġaround": 1176,
      "ized": 1177,
      "Ġplace": 1178,
      "Ġquest": 1179,
      "Ġfamily": 1180,
      "bt": 1181,
      "old": 1182,
      "Ġbad": 1183,
      "Ġfind": 1184,
      "Ġfree": 1185,
      "ask": 1186,
      "Ġequ": 1187,
      "Ġtrying": 1188,
      "Ġconst": 1189,
      "Ġlead": 1190,
      "Ġothers": 1191,
      "selves": 1192,
      "Ġparty": 1193,
      "Ġcountries": 1194,
      "Ġelse": 1195,
      "Ġhuman": 1196,
      "Ġarticle": 1197,
      "how": 1198,
      "li": 1199,
      "led": 1200,
      "min": 1201,
      "tc": 1202,
      "ww": 1203,
      "Ġ.": 1204,
      "hes": 1205,
      "Ġple": 1206,
      "Ġmem": 1207,
      "Ġhon": 1208,
      "Ġnum": 1209,
      "irl": 1210,
      "Ġviol": 1211,
      "Ġlove": 1212,
      "Ġpolice": 1213,
      "Ġsince": 1214,
      "but": 1215,
      "of": 1216,
      "Ġopp": 1217,
      "ited": 1218,
      "Ġanti": 1219,
      "arm": 1220,
      "Ġyet": 1221,
      "Ġisn": 1222,
      "Ġyoung": 1223,
      "Ġstart": 1224,
      "Ġlive": 1225,
      "Ġview": 1226,
      "Ġused": 1227,
      "Ġpret": 1228,
      "Ġobama": 1229,
      "Ġfeel": 1230,
      "Ġbusiness": 1231,
      "Ġignor": 1232,
      "Ġthrough": 1233,
      "iot": 1234,
      "ram": 1235,
      "Ġcar": 1236,
      "Ġboy": 1237,
      "ene": 1238,
      "Ġpop": 1239,
      "Ġeas": 1240,
      "that": 1241,
      "ments": 1242,
      "Ġ--": 1243,
      "Ġcalled": 1244,
      "ittle": 1245,
      "Ġcontrol": 1246,
      "Ġtimes": 1247,
      "erg": 1248,
      "Ġdone": 1249,
      "Ġnon": 1250,
      "Ġgun": 1251,
      "Ġyes": 1252,
      "ops": 1253,
      "illary": 1254,
      "Ġeng": 1255,
      "000": 1256,
      "ught": 1257,
      "Ġamerican": 1258,
      "Ġelection": 1259,
      "Ġclear": 1260,
      "Ġcivil": 1261,
      "ds": 1262,
      "ix": 1263,
      "ired": 1264,
      "rect": 1265,
      "ering": 1266,
      "ites": 1267,
      "Ġmis": 1268,
      "Ġmaj": 1269,
      "ings": 1270,
      "Ġfore": 1271,
      "ales": 1272,
      "vel": 1273,
      "ute": 1274,
      "Ġform": 1275,
      "Ġhaving": 1276,
      "Ġstates": 1277,
      "Ġtrue": 1278,
      "Ġext": 1279,
      "ably": 1280,
      "Ġcomments": 1281,
      "Ġinvest": 1282,
      "Ġsimply": 1283,
      "Ġdifferent": 1284,
      "Ġculture": 1285,
      "Ġcomplete": 1286,
      "aim": 1287,
      "Ġpat": 1288,
      "Ġfed": 1289,
      "Ġfew": 1290,
      "Ġname": 1291,
      "Ġlittle": 1292,
      "Ġetc": 1293,
      "Ġprog": 1294,
      "Ġjesus": 1295,
      "Ġchin": 1296,
      "Ġcond": 1297,
      "ular": 1298,
      "Ġexp": 1299,
      "ender": 1300,
      "osed": 1301,
      "ude": 1302,
      "Ġclaim": 1303,
      "plain": 1304,
      "Ġamericans": 1305,
      "Ġfemale": 1306,
      "Ġmedia": 1307,
      "//": 1308,
      "://": 1309,
      "fr": 1310,
      "gr": 1311,
      "lf": 1312,
      "Ġcam": 1313,
      "iting": 1314,
      "orn": 1315,
      "Ġgirl": 1316,
      "Ġra": 1317,
      "Ġstud": 1318,
      "Ġpri": 1319,
      "there": 1320,
      "Ġchange": 1321,
      "Ġalask": 1322,
      "Ġgrow": 1323,
      "white": 1324,
      "Ġprof": 1325,
      "Ġsexual": 1326,
      "Ġbased": 1327,
      "Ġnational": 1328,
      "gest": 1329,
      "ier": 1330,
      "ten": 1331,
      "Ġturn": 1332,
      "Ġwat": 1333,
      "Ġwar": 1334,
      "Ġoil": 1335,
      "Ġcent": 1336,
      "ond": 1337,
      "Ġhigh": 1338,
      "Ġtoday": 1339,
      "ote": 1340,
      "Ġil": 1341,
      "Ġir": 1342,
      "Ġeither": 1343,
      "Ġreport": 1344,
      "stem": 1345,
      "Ġstory": 1346,
      "ets": 1347,
      "Ġpriv": 1348,
      "Ġcannot": 1349,
      "ivid": 1350,
      "Ġsociety": 1351,
      "Ġissue": 1352,
      "Ġgroup": 1353,
      "Ġeduc": 1354,
      "br": 1355,
      "Ġ...": 1356,
      "Ġwa": 1357,
      "Ġsit": 1358,
      "Ġcity": 1359,
      "Ġcost": 1360,
      "ern": 1361,
      "Ġpos": 1362,
      "Ġthought": 1363,
      "used": 1364,
      "Ġhead": 1365,
      "imate": 1366,
      "Ġaren": 1367,
      "Ġtruth": 1368,
      "upt": 1369,
      "Ġkid": 1370,
      "Ġexper": 1371,
      "empt": 1372,
      "Ġunt": 1373,
      "Ġthemselves": 1374,
      "Ġgetting": 1375,
      "Ġenough": 1376,
      "Ġprov": 1377,
      "Ġobvious": 1378,
      "Ġcommun": 1379,
      "ully": 1380,
      "crimin": 1381,
      "Ġbigot": 1382,
      "Ġsystem": 1383,
      "\",": 1384,
      "'d": 1385,
      "most": 1386,
      "atives": 1387,
      "Ġcur": 1388,
      "itution": 1389,
      "ency": 1390,
      "Ġfol": 1391,
      "estern": 1392,
      "Ġhard": 1393,
      "Ġill": 1394,
      "acy": 1395,
      "Ġrid": 1396,
      "Ġval": 1397,
      "Ġlikely": 1398,
      "Ġdisc": 1399,
      "Ġadv": 1400,
      "Ġplay": 1401,
      "Ġracism": 1402,
      "Ġrespect": 1403,
      "Ġteac": 1404,
      "ween": 1405,
      "Ġvoted": 1406,
      "uck": 1407,
      "Ġserv": 1408,
      "Ġlaws": 1409,
      "Ġbuild": 1410,
      "Ġregard": 1411,
      "Ġmental": 1412,
      "Ġprotect": 1413,
      "Ġliberal": 1414,
      "Ġmillion": 1415,
      "iddle": 1416,
      "ject": 1417,
      "now": 1418,
      "ys": 1419,
      "Ġmarr": 1420,
      "ald": 1421,
      "Ġland": 1422,
      "Ġrest": 1423,
      "Ġwee": 1424,
      "Ġtry": 1425,
      "Ġabort": 1426,
      "Ġvict": 1427,
      "why": 1428,
      "Ġsaying": 1429,
      "Ġplan": 1430,
      "Ġblacks": 1431,
      "Ġhimself": 1432,
      "Ġfail": 1433,
      "cond": 1434,
      "Ġpolitical": 1435,
      "Ġjewish": 1436,
      "Ġplease": 1437,
      "Ġuntil": 1438,
      "by": 1439,
      "ead": 1440,
      "mm": 1441,
      "rupt": 1442,
      "Ġ6": 1443,
      "ĠâĢľ": 1444,
      "Ġauth": 1445,
      "Ġwestern": 1446,
      "Ġsou": 1447,
      "Ġcase": 1448,
      "ouse": 1449,
      "Ġpast": 1450,
      "Ġmind": 1451,
      "Ġmaking": 1452,
      "Ġans": 1453,
      "Ġhat": 1454,
      "Ġhillary": 1455,
      "Ġdest": 1456,
      "Ġstre": 1457,
      "Ġjo": 1458,
      "they": 1459,
      "Ġlives": 1460,
      "Ġself": 1461,
      "Ġsays": 1462,
      "Ġactually": 1463,
      "Ġguess": 1464,
      "Ġbetween": 1465,
      "Ġspec": 1466,
      "Ġmaybe": 1467,
      "Ġrepublicans": 1468,
      "Ġopen": 1469,
      "ertain": 1470,
      "Ġexample": 1471,
      "Ġallowed": 1472,
      "'ll": 1473,
      ",\"": 1474,
      "do": 1475,
      "line": 1476,
      "yn": 1477,
      "ins": 1478,
      "Ġce": 1479,
      "Ġcit": 1480,
      "Ġmass": 1481,
      "Ġhope": 1482,
      "Ġhyp": 1483,
      "arch": 1484,
      "ices": 1485,
      "Ġgive": 1486,
      "ional": 1487,
      "Ġret": 1488,
      "Ġrequ": 1489,
      "Ġrad": 1490,
      "Ġcho": 1491,
      "Ġconc": 1492,
      "Ġdead": 1493,
      "Ġnext": 1494,
      "ife": 1495,
      "Ġagree": 1496,
      "Ġchristians": 1497,
      "Ġserious": 1498,
      "Ġconserv": 1499,
      "Ġsocial": 1500,
      "Ġissues": 1501,
      "Ġprotest": 1502,
      "Ġgroups": 1503,
      "Ġseems": 1504,
      "where": 1505,
      "Ġextrem": 1506,
      "Ġfolks": 1507,
      "Ġdestr": 1508,
      "),": 1509,
      "ook": 1510,
      "ted": 1511,
      "Ġtreat": 1512,
      "reed": 1513,
      "Ġsk": 1514,
      "Ġsol": 1515,
      "Ġposs": 1516,
      "Ġfound": 1517,
      "Ġden": 1518,
      "uring": 1519,
      "Ġsecond": 1520,
      "htt": 1521,
      "Ġshoot": 1522,
      "Ġlear": 1523,
      "Ġleast": 1524,
      "ending": 1525,
      "Ġago": 1526,
      "Ġclass": 1527,
      "Ġarg": 1528,
      "Ġsupp": 1529,
      "ploy": 1530,
      "Ġneeds": 1531,
      "Ġpoor": 1532,
      "Ġterm": 1533,
      "conom": 1534,
      "Ġentire": 1535,
      "Ġbehind": 1536,
      "Ġquestion": 1537,
      "Ġilleg": 1538,
      "Ġcitiz": 1539,
      "cess": 1540,
      "ias": 1541,
      "ivers": 1542,
      "ner": 1543,
      "xual": 1544,
      "ision": 1545,
      "Ġbit": 1546,
      "Ġbish": 1547,
      "Ġhar": 1548,
      "Ġinter": 1549,
      "Ġgiven": 1550,
      "ently": 1551,
      "eter": 1552,
      "istr": 1553,
      "Ġconf": 1554,
      "Ġdeath": 1555,
      "rence": 1556,
      "Ġresult": 1557,
      "Ġeverything": 1558,
      "Ġoffice": 1559,
      "Ġcorrect": 1560,
      "rael": 1561,
      "Ġfriends": 1562,
      "Ġpretty": 1563,
      "Ġfederal": 1564,
      "Ġalaska": 1565,
      "Ġhypocr": 1566,
      "au": 1567,
      "aff": 1568,
      "ever": 1569,
      "ger": 1570,
      "just": 1571,
      "land": 1572,
      "mit": 1573,
      "ph": 1574,
      "wer": 1575,
      "ined": 1576,
      "Ġwish": 1577,
      "ane": 1578,
      "ank": 1579,
      "Ġpred": 1580,
      "ash": 1581,
      "Ġlar": 1582,
      "Ġisrael": 1583,
      "ount": 1584,
      "Ġlevel": 1585,
      "resent": 1586,
      "Ġdiscrimin": 1587,
      "ization": 1588,
      "Ġpolic": 1589,
      "Ġdrug": 1590,
      "Ġemploy": 1591,
      "Ġindivid": 1592,
      "Ġtalking": 1593,
      "Ġislamic": 1594,
      "Ġgener": 1595,
      "Ġdemocrats": 1596,
      "Ġpopul": 1597,
      "Ġmajority": 1598,
      "Ġexperi": 1599,
      "Ġvictim": 1600,
      "Ġindividual": 1601,
      "co": 1602,
      "go": 1603,
      "sh": 1604,
      "Ġ9": 1605,
      "Ġes": 1606,
      "Ġwin": 1607,
      "Ġset": 1608,
      "Ġsad": 1609,
      "Ġsign": 1610,
      "ished": 1611,
      "Ġcertain": 1612,
      "Ġbre": 1613,
      "Ġpass": 1614,
      "Ġmakes": 1615,
      "Ġfin": 1616,
      "ese": 1617,
      "Ġla": 1618,
      "Ġlow": 1619,
      "Ġlim": 1620,
      "Ġlost": 1621,
      "Ġbecome": 1622,
      "Ġeconom": 1623,
      "Ġrate": 1624,
      "Ġrap": 1625,
      "idence": 1626,
      "istic": 1627,
      "ilt": 1628,
      "Ġabs": 1629,
      "Ġwhole": 1630,
      "Ġmeans": 1631,
      "Ġknown": 1632,
      "Ġcrimin": 1633,
      "Ġrace": 1634,
      "Ġspeak": 1635,
      "Ġfaith": 1636,
      "Ġprobably": 1637,
      "Ġelected": 1638,
      "Ġkilled": 1639,
      "Ġwonder": 1640,
      "Ġrepublican": 1641,
      "Ġglob": 1642,
      "ai": 1643,
      "iate": 1644,
      "med": 1645,
      "ub": 1646,
      "uation": 1647,
      "ison": 1648,
      "Ġcand": 1649,
      "Ġcame": 1650,
      "ony": 1651,
      "anc": 1652,
      "Ġmo": 1653,
      "Ġmr": 1654,
      "Ġmiddle": 1655,
      "Ġfear": 1656,
      "Ġfull": 1657,
      "Ġfoll": 1658,
      "Ġthough": 1659,
      "Ġdou": 1660,
      "aring": 1661,
      "Ġlat": 1662,
      "ention": 1663,
      "ides": 1664,
      "Ġstat": 1665,
      "oph": 1666,
      "ury": 1667,
      "iving": 1668,
      "iage": 1669,
      "Ġcrit": 1670,
      "Ġcourt": 1671,
      "Ġcorrupt": 1672,
      "Ġguys": 1673,
      "Ġinstead": 1674,
      "Ġopin": 1675,
      "Ġjews": 1676,
      "Ġimmigration": 1677,
      "Ġidiot": 1678,
      "Ġincluding": 1679,
      "Ġinvestig": 1680,
      "Ġpriest": 1681,
      "Ġcandid": 1682,
      "ault": 1683,
      "ffect": 1684,
      "gust": 1685,
      "gress": 1686,
      "iver": 1687,
      "ny": 1688,
      "right": 1689,
      "uge": 1690,
      "yes": 1691,
      "Ġz": 1692,
      "Ġsing": 1693,
      "ator": 1694,
      "ont": 1695,
      "Ġmet": 1696,
      "ork": 1697,
      "orry": 1698,
      "Ġfather": 1699,
      "Ġtot": 1700,
      "Ġdiv": 1701,
      "let": 1702,
      "Ġgender": 1703,
      "Ġeach": 1704,
      "Ġruss": 1705,
      "Ġhell": 1706,
      "und": 1707,
      "ument": 1708,
      "Ġsec": 1709,
      "Ġseen": 1710,
      "Ġalread": 1711,
      "Ġwhether": 1712,
      "aken": 1713,
      "osexual": 1714,
      "aged": 1715,
      "ibility": 1716,
      "cial": 1717,
      "ounds": 1718,
      "Ġvoters": 1719,
      "Ġcanadian": 1720,
      "Ġconsid": 1721,
      "Ġkilling": 1722,
      "itted": 1723,
      "Ġreligious": 1724,
      "Ġroom": 1725,
      "Ġidea": 1726,
      "Ġviolence": 1727,
      "Ġprogram": 1728,
      "Ġabortion": 1729,
      "Ġdestroy": 1730,
      "Ġalready": 1731,
      "201": 1732,
      "ared": 1733,
      "io": 1734,
      "ler": 1735,
      "ling": 1736,
      "more": 1737,
      "noc": 1738,
      "oo": 1739,
      "ures": 1740,
      "Ġ,": 1741,
      "Ġsw": 1742,
      "Ġpick": 1743,
      "Ġmil": 1744,
      "Ġface": 1745,
      "Ġhouse": 1746,
      "Ġthreat": 1747,
      "Ġda": 1748,
      "Ġdam": 1749,
      "ality": 1750,
      "Ġinde": 1751,
      "Ġnat": 1752,
      "Ġnaz": 1753,
      "Ġrece": 1754,
      "Ġrul": 1755,
      "Ġrather": 1756,
      "Ġones": 1757,
      "unk": 1758,
      "Ġwasn": 1759,
      "Ġneigh": 1760,
      "Ġexact": 1761,
      "ified": 1762,
      "Ġsug": 1763,
      "Ġusing": 1764,
      "Ġ20": 1765,
      "Ġaccept": 1766,
      "Ġstatement": 1767,
      "Ġpolitic": 1768,
      "Ġinvol": 1769,
      "Ġcompan": 1770,
      "Ġproblems": 1771,
      "Ġmention": 1772,
      "Ġrespons": 1773,
      "Ġsurpr": 1774,
      "Ġfollow": 1775,
      "Ġneighb": 1776,
      "__": 1777,
      "ble": 1778,
      "fully": 1779,
      "Ġsent": 1780,
      "ators": 1781,
      "Ġcap": 1782,
      "Ġbar": 1783,
      "Ġbir": 1784,
      "ories": 1785,
      "Ġfire": 1786,
      "Ġhor": 1787,
      "Ġinnoc": 1788,
      "Ġlist": 1789,
      "Ġred": 1790,
      "Ġhear": 1791,
      "Ġable": 1792,
      "Ġexplain": 1793,
      "ember": 1794,
      "ify": 1795,
      "que": 1796,
      "Ġgets": 1797,
      "Ġdisgust": 1798,
      "aps": 1799,
      "Ġimp": 1800,
      "Ġwanted": 1801,
      "well": 1802,
      "Ġpartic": 1803,
      "Ġattempt": 1804,
      "Ġassault": 1805,
      "ohn": 1806,
      "Ġcolor": 1807,
      "Ġbook": 1808,
      "Ġident": 1809,
      "paign": 1810,
      "Ġcompletely": 1811,
      "Ġdiscuss": 1812,
      "Ġweek": 1813,
      "Ġradical": 1814,
      "Ġsuggest": 1815,
      "cl": 1816,
      "can": 1817,
      "don": 1818,
      "ex": 1819,
      "gan": 1820,
      "ged": 1821,
      "Ġve": 1822,
      "Ġtaking": 1823,
      "Ġsl": 1824,
      "Ġsense": 1825,
      "Ġmos": 1826,
      "Ġang": 1827,
      "Ġtop": 1828,
      "Ġtold": 1829,
      "Ġlos": 1830,
      "Ġline": 1831,
      ".....": 1832,
      "ames": 1833,
      "unch": 1834,
      "Ġwithin": 1835,
      "Ġconv": 1836,
      "Ġdep": 1837,
      "ilar": 1838,
      "Ġcoming": 1839,
      "Ġcomes": 1840,
      "ived": 1841,
      "Ġexpect": 1842,
      "Ġexcept": 1843,
      "Ġdonald": 1844,
      "ages": 1845,
      "Ġevidence": 1846,
      "Ġimport": 1847,
      "........": 1848,
      "Ġ201": 1849,
      "Ġrepresent": 1850,
      "Ġappro": 1851,
      "Ġreality": 1852,
      "!!!": 1853,
      "Ġfamil": 1854,
      "ology": 1855,
      "Ġproper": 1856,
      "Ġmonth": 1857,
      "Ġconstitution": 1858,
      "Ġcampaign": 1859,
      "Ġgirls": 1860,
      "Ġeducation": 1861,
      "Ġmarriage": 1862,
      "Ġreturn": 1863,
      "Ġpopulation": 1864,
      "bs": 1865,
      "body": 1866,
      "haps": 1867,
      "ik": 1868,
      "ient": 1869,
      "non": 1870,
      "Ġtest": 1871,
      "Ġtyp": 1872,
      "Ġage": 1873,
      "inal": 1874,
      "Ġsla": 1875,
      "Ġcre": 1876,
      "Ġbest": 1877,
      "Ġbene": 1878,
      "onse": 1879,
      "Ġmult": 1880,
      "Ġfour": 1881,
      "Ġhig": 1882,
      "Ġtook": 1883,
      "Ġoften": 1884,
      "icul": 1885,
      "asc": 1886,
      "Ġgop": 1887,
      "Ġeth": 1888,
      "Ġeffect": 1889,
      "Ġwhites": 1890,
      "Ġrich": 1891,
      "Ġprim": 1892,
      "Ġproc": 1893,
      "Ġdel": 1894,
      "Ġvis": 1895,
      "Ġunited": 1896,
      "ards": 1897,
      "ibly": 1898,
      "cially": 1899,
      "Ġthinking": 1900,
      "Ġ10": 1901,
      "Ġcatholics": 1902,
      "Ġbelief": 1903,
      "Ġlooking": 1904,
      "Ġremember": 1905,
      "---": 1906,
      "Ġmillions": 1907,
      "Ġimmigrants": 1908,
      "Ġterrorist": 1909,
      "www": 1910,
      "Ġmembers": 1911,
      "ergy": 1912,
      "Ġforeign": 1913,
      "Ġchina": 1914,
      "Ġprofess": 1915,
      "Ġsituation": 1916,
      "Ġanswer": 1917,
      "Ġillegal": 1918,
      "Ġcitizens": 1919,
      "Ġsingle": 1920,
      "Ġdisgusting": 1921,
      "50": 1922,
      "ee": 1923,
      "ging": 1924,
      "par": 1925,
      "tt": 1926,
      "uff": 1927,
      "Ġtaken": 1928,
      "Ġav": 1929,
      "Ġwent": 1930,
      "Ġsen": 1931,
      "Ġsac": 1932,
      "Ġsci": 1933,
      "Ġok": 1934,
      "atic": 1935,
      "Ġcut": 1936,
      "iter": 1937,
      "Ġpur": 1938,
      "Ġmist": 1939,
      "Ġanim": 1940,
      "Ġfut": 1941,
      "Ġho": 1942,
      "Ġhur": 1943,
      "Ġnative": 1944,
      "ases": 1945,
      "aces": 1946,
      "Ġonce": 1947,
      "ird": 1948,
      "Ġjohn": 1949,
      "ational": 1950,
      "Ġwords": 1951,
      "pecially": 1952,
      "ocal": 1953,
      "ively": 1954,
      "Ġsuff": 1955,
      "ĠĠĠĠ": 1956,
      "Ġblame": 1957,
      "Ġhowever": 1958,
      "Ġevent": 1959,
      "Ġenc": 1960,
      "Ġactiv": 1961,
      "Ġquite": 1962,
      "Ġworking": 1963,
      "Ġworked": 1964,
      "Ġways": 1965,
      "Ġspee": 1966,
      "Ġsupporters": 1967,
      "Ġpaid": 1968,
      "Ġignore": 1969,
      "Ġschools": 1970,
      "Ġdemocratic": 1971,
      "Ġmurder": 1972,
      "Ġsupremacists": 1973,
      "Ġignorant": 1974,
      "Ġboys": 1975,
      "Ġclearly": 1976,
      "udeau": 1977,
      "Ġhatred": 1978,
      "iversity": 1979,
      "Ġexperience": 1980,
      "Ġconsider": 1981,
      "Ġmilit": 1982,
      "Ġfamilies": 1983,
      "Ġbenef": 1984,
      "iculous": 1985,
      "Ġfuture": 1986,
      "'.": 1987,
      "20": 1988,
      "air": 1989,
      "bc": 1990,
      "cent": 1991,
      "fer": 1992,
      "may": 1993,
      "view": 1994,
      "Ġ7": 1995,
      "Ġ8": 1996,
      "Ġest": 1997,
      "reg": 1998,
      "Ġwalk": 1999,
      "Ġsick": 2000,
      "Ġcou": 2001,
      "ening": 2002,
      "Ġms": 2003,
      "Ġmod": 2004,
      "Ġfall": 2005,
      "alf": 2006,
      "Ġinform": 2007,
      "Ġbeg": 2008,
      "Ġeur": 2009,
      "Ġstay": 2010,
      "olute": 2011,
      "ister": 2012,
      "Ġprod": 2013,
      "Ġdog": 2014,
      "Ġchang": 2015,
      "ately": 2016,
      "Ġdeb": 2017,
      "Ġgoes": 2018,
      "Ġorder": 2019,
      "Ġabove": 2020,
      "Ġshort": 2021,
      "Ġexist": 2022,
      "Ġalmost": 2023,
      "Ġunf": 2024,
      "Ġyourself": 2025,
      "ortun": 2026,
      "Ġcrime": 2027,
      "Ġincre": 2028,
      "Ġbring": 2029,
      "Ġfair": 2030,
      "Ġcommon": 2031,
      "Ġaccom": 2032,
      "Ġparent": 2033,
      "uction": 2034,
      "Ġcheck": 2035,
      "Ġfund": 2036,
      "Ġresponse": 2037,
      "Ġlegal": 2038,
      "Ġhappened": 2039,
      "wards": 2040,
      "Ġsupremacist": 2041,
      "Ġnumber": 2042,
      "Ġstudents": 2043,
      "Ġposition": 2044,
      "Ġridiculous": 2045,
      "Ġskin": 2046,
      "Ġbishops": 2047,
      "Ġdoubt": 2048,
      "Ġpoliticians": 2049,
      "Ġinnocent": 2050,
      "Ġmulti": 2051,
      "Ġhigher": 2052,
      "maybe": 2053,
      "Ġeurope": 2054,
      ".)": 2055,
      "cut": 2056,
      "ges": 2057,
      "ta": 2058,
      "ters": 2059,
      "your": 2060,
      "Ġwall": 2061,
      "ising": 2062,
      "Ġbur": 2063,
      "Ġbias": 2064,
      "Ġpope": 2065,
      "Ġmess": 2066,
      "Ġmag": 2067,
      "Ġmove": 2068,
      "Ġfight": 2069,
      "Ġfool": 2070,
      "Ġhold": 2071,
      "Ġthree": 2072,
      "Ġdom": 2073,
      "ark": 2074,
      "usion": 2075,
      "Ġeast": 2076,
      "Ġrepl": 2077,
      "Ġste": 2078,
      "Ġliving": 2079,
      "Ġcongress": 2080,
      "ands": 2081,
      "Ġunless": 2082,
      "Ġword": 2083,
      "Ġwouldn": 2084,
      "Ġmeet": 2085,
      "Ġjustice": 2086,
      "Ġamong": 2087,
      "Ġknows": 2088,
      "action": 2089,
      "Ġthanks": 2090,
      "who": 2091,
      "ples": 2092,
      "Ġadmin": 2093,
      "Ġacts": 2094,
      "Ġspir": 2095,
      "Ġprev": 2096,
      "Ġwrote": 2097,
      "Ġbrain": 2098,
      "irect": 2099,
      "Ġremo": 2100,
      "anger": 2101,
      "Ġclean": 2102,
      "Ġsimilar": 2103,
      "Ġdays": 2104,
      "Ġgeneral": 2105,
      "Ġliberals": 2106,
      "Ġdifference": 2107,
      "Ġchristianity": 2108,
      "Ġinterested": 2109,
      "like": 2110,
      "Ġmisog": 2111,
      "Ġwatch": 2112,
      "Ġprivate": 2113,
      "Ġkids": 2114,
      "Ġobviously": 2115,
      "Ġspecul": 2116,
      "Ġsupposed": 2117,
      "Ġcertainly": 2118,
      "Ġcandidate": 2119,
      "Ġspeech": 2120,
      "olutely": 2121,
      "hood": 2122,
      "ior": 2123,
      "na": 2124,
      "new": 2125,
      "ton": 2126,
      "tar": 2127,
      "ured": 2128,
      "Ġur": 2129,
      "Ġten": 2130,
      "Ġtwe": 2131,
      "hen": 2132,
      "Ġwing": 2133,
      "Ġson": 2134,
      "Ġsus": 2135,
      "ats": 2136,
      "Ġbud": 2137,
      "Ġburn": 2138,
      "anks": 2139,
      "Ġpie": 2140,
      "Ġhy": 2141,
      "Ġtoget": 2142,
      "Ġdet": 2143,
      "Ġdue": 2144,
      "Ġnations": 2145,
      "arc": 2146,
      "Ġlower": 2147,
      "llig": 2148,
      "using": 2149,
      "Ġeff": 2150,
      "Ġru": 2151,
      "Ġris": 2152,
      "Ġforce": 2153,
      "str": 2154,
      "Ġhaw": 2155,
      "Ġstep": 2156,
      "Ġstories": 2157,
      "illy": 2158,
      "iron": 2159,
      "Ġpray": 2160,
      "Ġpract": 2161,
      "Ġprison": 2162,
      "Ġtrudeau": 2163,
      "ume": 2164,
      "Ġconcept": 2165,
      "Ġorig": 2166,
      "Ġshot": 2167,
      "aging": 2168,
      "Ġgrand": 2169,
      "Ġracial": 2170,
      "Ġperhaps": 2171,
      "dered": 2172,
      "Ġbuy": 2173,
      "Ġaccount": 2174,
      "Ġtaxes": 2175,
      "Ġdefin": 2176,
      "Ġtelling": 2177,
      "room": 2178,
      "Ġmark": 2179,
      "Ġsmall": 2180,
      "Ġhomosexual": 2181,
      "Ġearth": 2182,
      "Ġhonest": 2183,
      "Ġnumbers": 2184,
      "Ġignorance": 2185,
      "Ġcommunity": 2186,
      "reedom": 2187,
      "istration": 2188,
      "Ġcriminal": 2189,
      "Ġexactly": 2190,
      "Ġinvolved": 2191,
      "Ġbirth": 2192,
      "Ġimportant": 2193,
      "Ġspirit": 2194,
      "Ġmisogyn": 2195,
      "Ġtogether": 2196,
      "ches": 2197,
      "dr": 2198,
      "ders": 2199,
      "ike": 2200,
      "my": 2201,
      "oid": 2202,
      "oint": 2203,
      "pre": 2204,
      "rible": 2205,
      "she": 2206,
      "was": 2207,
      "xic": 2208,
      "ĊĊ": 2209,
      "Ġaw": 2210,
      "Ġwife": 2211,
      "Ġcust": 2212,
      "Ġpus": 2213,
      "Ġmother": 2214,
      "Ġhun": 2215,
      "Ġhous": 2216,
      "Ġthous": 2217,
      "Ġduring": 2218,
      "Ġintern": 2219,
      "ley": 2220,
      "Ġnight": 2221,
      "Ġgas": 2222,
      "ott": 2223,
      "Ġround": 2224,
      "Ġhaven": 2225,
      "iled": 2226,
      "Ġleave": 2227,
      "ended": 2228,
      "Ġsucc": 2229,
      "ief": 2230,
      "Ġknew": 2231,
      "Ġusa": 2232,
      "care": 2233,
      "Ġclose": 2234,
      "Ġdisag": 2235,
      "Ġenv": 2236,
      "Ġadm": 2237,
      "Ġwants": 2238,
      "Ġoffic": 2239,
      "Ġ200": 2240,
      "Ġobs": 2241,
      "Ġattention": 2242,
      "Ġfav": 2243,
      "Ġpersonal": 2244,
      "Ġremain": 2245,
      "Ġdecent": 2246,
      "Ġdecision": 2247,
      "itten": 2248,
      "Ġfemin": 2249,
      "Ġrecord": 2250,
      "when": 2251,
      "Ġattacks": 2252,
      "Ġterrorists": 2253,
      "Ġcause": 2254,
      "Ġpromot": 2255,
      "Ġaddress": 2256,
      "Ġcontinue": 2257,
      "Ġcontinues": 2258,
      "Ġjudge": 2259,
      "Ġeasy": 2260,
      "Ġchinese": 2261,
      "Ġadvoc": 2262,
      "Ġservice": 2263,
      "Ġauthor": 2264,
      "Ġextremists": 2265,
      "http": 2266,
      "Ġlarge": 2267,
      "Ġvictims": 2268,
      "Ġespecially": 2269,
      "Ġabsolutely": 2270,
      "Ġmilitary": 2271,
      "Ġparents": 2272,
      ",âĢĿ": 2273,
      "af": 2274,
      "ered": 2275,
      "gy": 2276,
      "hold": 2277,
      "ially": 2278,
      "men": 2279,
      "nn": 2280,
      "ox": 2281,
      "rap": 2282,
      "ship": 2283,
      "ued": 2284,
      "vil": 2285,
      "with": 2286,
      "Ġer": 2287,
      "Ġvers": 2288,
      "Ġtakes": 2289,
      "Ġsour": 2290,
      "Ġsorry": 2291,
      "Ġoper": 2292,
      "Ġocc": 2293,
      "att": 2294,
      "Ġcod": 2295,
      "Ġcases": 2296,
      "Ġbunch": 2297,
      "Ġmer": 2298,
      "Ġfake": 2299,
      "Ġfreedom": 2300,
      "Ġdirect": 2301,
      "lev": 2302,
      "lebr": 2303,
      "Ġgone": 2304,
      "Ġlab": 2305,
      "Ġitself": 2306,
      "iding": 2307,
      "Ġheard": 2308,
      "see": 2309,
      "Ġweap": 2310,
      "americ": 2311,
      "umb": 2312,
      "Ġlik": 2313,
      "Ġliar": 2314,
      "Ġlived": 2315,
      "thood": 2316,
      "Ġorgan": 2317,
      "ustr": 2318,
      "Ġnear": 2319,
      "Ġnecess": 2320,
      "Ġvar": 2321,
      "Ġfront": 2322,
      "ights": 2323,
      "Ġalc": 2324,
      "agine": 2325,
      "aper": 2326,
      "ults": 2327,
      "âĢĶ": 2328,
      "Ġ100": 2329,
      "elt": 2330,
      "Ġwritten": 2331,
      "ensive": 2332,
      "Ġrelations": 2333,
      "Ġfault": 2334,
      "ford": 2335,
      "Ġcanadians": 2336,
      "rently": 2337,
      "azy": 2338,
      "Ġbuilt": 2339,
      "Ġintellig": 2340,
      "Ġparish": 2341,
      "Ġreading": 2342,
      "Ġmarch": 2343,
      "Ġhands": 2344,
      "Ġjobs": 2345,
      "Ġrunning": 2346,
      "Ġ50": 2347,
      "Ġappe": 2348,
      "Ġequal": 2349,
      "Ġleaders": 2350,
      "Ġmember": 2351,
      "Ġexpress": 2352,
      "Ġillness": 2353,
      "Ġteaching": 2354,
      "Ġbuilding": 2355,
      "Ġregardless": 2356,
      "Ġsouth": 2357,
      "Ġconservative": 2358,
      "Ġconservatives": 2359,
      "Ġdiscrimination": 2360,
      "Ġraped": 2361,
      "Ġglobe": 2362,
      "aii": 2363,
      "ancis": 2364,
      "Ġopinion": 2365,
      "Ġpriests": 2366,
      "Ġdaught": 2367,
      "Ġparticular": 2368,
      "Ġbeliefs": 2369,
      "Ġsuspect": 2370,
      "Ġrisk": 2371,
      "ironment": 2372,
      "Ġsuccess": 2373,
      "Ġenvironment": 2374,
      "\"?": 2375,
      "?\"": 2376,
      "ban": 2377,
      "call": 2378,
      "da": 2379,
      "eah": 2380,
      "good": 2381,
      "ipp": 2382,
      "ipt": 2383,
      "lic": 2384,
      "lish": 2385,
      "me": 2386,
      "ming": 2387,
      "mal": 2388,
      "pet": 2389,
      "ring": 2390,
      "side": 2391,
      "uly": 2392,
      "wom": 2393,
      "Ġ[": 2394,
      "head": 2395,
      "Ġsand": 2396,
      "Ġsilly": 2397,
      "Ġoh": 2398,
      "isl": 2399,
      "ises": 2400,
      "Ġcow": 2401,
      "Ġcred": 2402,
      "Ġbase": 2403,
      "Ġborn": 2404,
      "ouch": 2405,
      "Ġpen": 2406,
      "Ġmot": 2407,
      "Ġmiss": 2408,
      "Ġmales": 2409,
      "Ġfoc": 2410,
      "Ġfix": 2411,
      "Ġfasc": 2412,
      "Ġhuge": 2413,
      "Ġtoler": 2414,
      "Ġdress": 2415,
      "Ġnarr": 2416,
      "ased": 2417,
      "Ġlog": 2418,
      "ots": 2419,
      "usive": 2420,
      "Ġrates": 2421,
      "Ġheart": 2422,
      "Ġforg": 2423,
      "urity": 2424,
      "Ġwel": 2425,
      "Ġwear": 2426,
      "aming": 2427,
      "Ġnote": 2428,
      "isted": 2429,
      "these": 2430,
      "Ġdoc": 2431,
      "Ġdoct": 2432,
      "Ġconvers": 2433,
      "Ġdeep": 2434,
      "Ġcompl": 2435,
      "Ġvs": 2436,
      "Ġshut": 2437,
      "Ġfrancis": 2438,
      "acks": 2439,
      "ained": 2440,
      "Ġalong": 2441,
      "abb": 2442,
      "Ġworse": 2443,
      "Ġworth": 2444,
      "Ġwilling": 2445,
      "obody": 2446,
      "Ġamaz": 2447,
      "Ġagend": 2448,
      "Ġenergy": 2449,
      "while": 2450,
      "Ġactual": 2451,
      "Ġspend": 2452,
      "Ġafric": 2453,
      "Ġpresent": 2454,
      "ugh": 2455,
      "Ġincome": 2456,
      "ension": 2457,
      "Ġspecial": 2458,
      "Ġstatements": 2459,
      "Ġcommitted": 2460,
      "cript": 2461,
      "Ġpolitics": 2462,
      "Ġlonger": 2463,
      "Ġdiff": 2464,
      "Ġhappens": 2465,
      "Ġmentally": 2466,
      "Ġcover": 2467,
      "Ġgays": 2468,
      "Ġdesp": 2469,
      "Ġ198": 2470,
      "Ġ40": 2471,
      "Ġasked": 2472,
      "Ġcondem": 2473,
      "from": 2474,
      "Ġgrowing": 2475,
      "Ġwater": 2476,
      "Ġteacher": 2477,
      "Ġstreet": 2478,
      "Ġcelebr": 2479,
      "Ġtreatment": 2480,
      "https": 2481,
      "Ġlearn": 2482,
      "Ġlimit": 2483,
      "ophob": 2484,
      "Ġinvestigation": 2485,
      "Ġnature": 2486,
      "Ġreceived": 2487,
      "Ġneighbor": 2488,
      "Ġproperty": 2489,
      "Ġmultiple": 2490,
      "Ġadministration": 2491,
      "Ġalcoh": 2492,
      ".âĢĿ": 2493,
      "10": 2494,
      "aa": 2495,
      "bi": 2496,
      "cer": 2497,
      "cing": 2498,
      "catholic": 2499,
      "ched": 2500,
      "dd": 2501,
      "gbt": 2502,
      "king": 2503,
      "ls": 2504,
      "mus": 2505,
      "wing": 2506,
      "wise": 2507,
      "Ġut": 2508,
      "Ġtar": 2509,
      "Ġair": 2510,
      "here": 2511,
      "hetic": 2512,
      "ream": 2513,
      "Ġwit": 2514,
      "Ġsn": 2515,
      "Ġsat": 2516,
      "Ġsal": 2517,
      "Ġside": 2518,
      "Ġsounds": 2519,
      "isy": 2520,
      "ery": 2521,
      "Ġbom": 2522,
      "Ġbull": 2523,
      "oud": 2524,
      "itting": 2525,
      "ences": 2526,
      "ancy": 2527,
      "Ġmain": 2528,
      "Ġfur": 2529,
      "Ġfelt": 2530,
      "Ġtown": 2531,
      "Ġthird": 2532,
      "Ġdie": 2533,
      "Ġintr": 2534,
      "Ġnut": 2535,
      "icit": 2536,
      "icult": 2537,
      "icated": 2538,
      "Ġgave": 2539,
      "Ġgiving": 2540,
      "Ġlock": 2541,
      "Ġlocal": 2542,
      "acter": 2543,
      "ows": 2544,
      "Ġstaff": 2545,
      "Ġtra": 2546,
      "Ġtrad": 2547,
      "Ġtroll": 2548,
      "Ġjour": 2549,
      "then": 2550,
      "Ġlie": 2551,
      "thank": 2552,
      "Ġsect": 2553,
      "Ġabuse": 2554,
      "Ġneg": 2555,
      "Ġworship": 2556,
      "Ġamend": 2557,
      "Ġthank": 2558,
      "izing": 2559,
      "Ġcrimes": 2560,
      "Ġplaces": 2561,
      "Ġoffer": 2562,
      "Ġpoll": 2563,
      "onsense": 2564,
      "Ġdemon": 2565,
      "crib": 2566,
      "Ġfacts": 2567,
      "Ġletter": 2568,
      "???": 2569,
      "Ġsym": 2570,
      "Ġpaying": 2571,
      "Ġstupidity": 2572,
      "Ġrecently": 2573,
      "ney": 2574,
      "Ġterrorism": 2575,
      "many": 2576,
      "ological": 2577,
      "Ġbehav": 2578,
      "Ġ30": 2579,
      "Ġasking": 2580,
      "Ġtransg": 2581,
      "Ġquestions": 2582,
      "Ġoppos": 2583,
      "Ġprogress": 2584,
      "Ġprivile": 2585,
      "Ġwaiting": 2586,
      "Ġcurrent": 2587,
      "Ġservices": 2588,
      "Ġstreets": 2589,
      "Ġjoke": 2590,
      "Ġspecific": 2591,
      "Ġrequired": 2592,
      "Ġchoice": 2593,
      "Ġseriously": 2594,
      "Ġextreme": 2595,
      "Ġsolution": 2596,
      "Ġargument": 2597,
      "Ġpolicy": 2598,
      "Ġcritic": 2599,
      "Ġrussian": 2600,
      "2017": 2601,
      "Ġrules": 2602,
      "Ġsurprised": 2603,
      "Ġmonths": 2604,
      "Ġholy": 2605,
      "Ġinformation": 2606,
      "Ġbudget": 2607,
      "Ġeffort": 2608,
      "Ġcustom": 2609,
      "Ġdisagree": 2610,
      "Ġfavor": 2611,
      "Ġalcohol": 2612,
      ".,": 2613,
      "aft": 2614,
      "arently": 2615,
      "bel": 2616,
      "che": 2617,
      "cons": 2618,
      "dis": 2619,
      "dom": 2620,
      "iod": 2621,
      "look": 2622,
      "mon": 2623,
      "ping": 2624,
      "pay": 2625,
      "pend": 2626,
      "sa": 2627,
      "spe": 2628,
      "uce": 2629,
      "wor": 2630,
      "yond": 2631,
      "Ġtre": 2632,
      "ining": 2633,
      "ines": 2634,
      "ince": 2635,
      "Ġwarr": 2636,
      "Ġsend": 2637,
      "Ġsort": 2638,
      "isa": 2639,
      "atory": 2640,
      "Ġcal": 2641,
      "Ġcake": 2642,
      "Ġcard": 2643,
      "Ġcens": 2644,
      "Ġbab": 2645,
      "Ġbody": 2646,
      "itive": 2647,
      "ened": 2648,
      "Ġpal": 2649,
      "Ġpot": 2650,
      "Ġpict": 2651,
      "Ġmcc": 2652,
      "Ġanal": 2653,
      "Ġfat": 2654,
      "Ġfill": 2655,
      "Ġhour": 2656,
      "Ġhier": 2657,
      "Ġdi": 2658,
      "Ġdanger": 2659,
      "eds": 2660,
      "alse": 2661,
      "alism": 2662,
      "Ġinfl": 2663,
      "arily": 2664,
      "Ġlol": 2665,
      "Ġlad": 2666,
      "Ġlate": 2667,
      "Ġrese": 2668,
      "Ġforward": 2669,
      "ster": 2670,
      "veral": 2671,
      "urance": 2672,
      "Ġwealth": 2673,
      "Ġprin": 2674,
      "Ġprice": 2675,
      "Ġtrust": 2676,
      "Ġtried": 2677,
      "Ġjap": 2678,
      "Ġdoll": 2679,
      "atever": 2680,
      "Ġking": 2681,
      "thanks": 2682,
      "Ġsell": 2683,
      "Ġsepar": 2684,
      "Ġseveral": 2685,
      "Ġcomplain": 2686,
      "Ġshar": 2687,
      "Ġshame": 2688,
      "respect": 2689,
      "Ġexc": 2690,
      "Ġexe": 2691,
      "ield": 2692,
      "Ġupon": 2693,
      "Ġevil": 2694,
      "Ġens": 2695,
      "Ġtech": 2696,
      "Ġactions": 2697,
      "Ġspo": 2698,
      "Ġpregn": 2699,
      "Ġwrite": 2700,
      "Ġwriting": 2701,
      "Ġque": 2702,
      "Ġquot": 2703,
      "Ġpercent": 2704,
      "Ġperiod": 2705,
      "acept": 2706,
      "icted": 2707,
      "ials": 2708,
      "Ġdemand": 2709,
      "pro": 2710,
      "Ġrealize": 2711,
      "Ġcontracept": 2712,
      "Ġaccess": 2713,
      "Ġpaul": 2714,
      "ission": 2715,
      "Ġbush": 2716,
      "raid": 2717,
      "Ġrecent": 2718,
      "Ġsupreme": 2719,
      "Ġflag": 2720,
      "Ġshows": 2721,
      "Ġminor": 2722,
      "Ġminority": 2723,
      "Ġunderstanding": 2724,
      "Ġlegisl": 2725,
      "Ġinclude": 2726,
      "Ġsmart": 2727,
      "Ġsubs": 2728,
      "Ġleader": 2729,
      "Ġeasily": 2730,
      "Ġsexuality": 2731,
      "Ġwait": 2732,
      "Ġcosts": 2733,
      "imately": 2734,
      "Ġvalue": 2735,
      "Ġfailed": 2736,
      "Ġpossible": 2737,
      "Ġshooting": 2738,
      "Ġhypocrisy": 2739,
      "Ġindividuals": 2740,
      "Ġlaugh": 2741,
      "Ġsecurity": 2742,
      "Ġindeed": 2743,
      "Ġindepend": 2744,
      "Ġcompany": 2745,
      "Ġpurp": 2746,
      "Ġencour": 2747,
      "Ġestab": 2748,
      "Ġcouple": 2749,
      "Ġbegin": 2750,
      "Ġprevent": 2751,
      "Ġhawaii": 2752,
      "Ġweapons": 2753,
      "Ġagenda": 2754,
      "Ġdifficult": 2755,
      "muslim": 2756,
      "Ġtarget": 2757,
      "Ġprivilege": 2758,
      "Ġhierarch": 2759,
      "Ġjapan": 2760,
      "app": 2761,
      "cil": 2762,
      "did": 2763,
      "ees": 2764,
      "even": 2765,
      "ij": 2766,
      "iable": 2767,
      "life": 2768,
      "nes": 2769,
      "nic": 2770,
      "over": 2771,
      "pit": 2772,
      "ped": 2773,
      "rop": 2774,
      "ross": 2775,
      "time": 2776,
      "wow": 2777,
      "wide": 2778,
      "ype": 2779,
      "Ġug": 2780,
      "Ġtend": 2781,
      "Ġtouch": 2782,
      "Ġaver": 2783,
      "het": 2784,
      "rew": 2785,
      "Ġwest": 2786,
      "Ġsum": 2787,
      "Ġcab": 2788,
      "Ġbath": 2789,
      "ones": 2790,
      "itut": 2791,
      "itter": 2792,
      "itish": 2793,
      "Ġpain": 2794,
      "Ġpure": 2795,
      "Ġpension": 2796,
      "Ġmou": 2797,
      "Ġmom": 2798,
      "Ġmart": 2799,
      "ingly": 2800,
      "oron": 2801,
      "Ġfre": 2802,
      "Ġfalse": 2803,
      "Ġhost": 2804,
      "Ġhalf": 2805,
      "Ġthus": 2806,
      "Ġdeter": 2807,
      "Ġdiversity": 2808,
      "lex": 2809,
      "lear": 2810,
      "Ġnobody": 2811,
      "Ġnonsense": 2812,
      "Ġger": 2813,
      "Ġgives": 2814,
      "Ġlink": 2815,
      "Ġbec": 2816,
      "Ġbeyond": 2817,
      "Ġwhatever": 2818,
      "vere": 2819,
      "Ġreform": 2820,
      "enty": 2821,
      "aced": 2822,
      "owing": 2823,
      "Ġrob": 2824,
      "Ġrail": 2825,
      "ided": 2826,
      "Ġontar": 2827,
      "Ġforget": 2828,
      "oles": 2829,
      "ament": 2830,
      "istics": 2831,
      "une": 2832,
      "iring": 2833,
      "Ġpra": 2834,
      "Ġpries": 2835,
      "Ġtrade": 2836,
      "Ġtruly": 2837,
      "christ": 2838,
      "Ġdev": 2839,
      "Ġattr": 2840,
      "Ġshare": 2841,
      "umpt": 2842,
      "Ġworst": 2843,
      "Ġmexic": 2844,
      "...\"": 2845,
      "thern": 2846,
      "Ġusually": 2847,
      "Ġclimate": 2848,
      "Ġintent": 2849,
      "Ġotherwise": 2850,
      "Ġgrad": 2851,
      "Ġarab": 2852,
      "Ġsuper": 2853,
      "iber": 2854,
      "Ġenem": 2855,
      "Ġcrap": 2856,
      "hington": 2857,
      "Ġacting": 2858,
      "Ġprevious": 2859,
      "Ġprefer": 2860,
      "Ġaff": 2861,
      "Ġafford": 2862,
      "Ġafraid": 2863,
      "Ġacross": 2864,
      "ugg": 2865,
      "Ġneeded": 2866,
      "Ġvoting": 2867,
      "Ġworkers": 2868,
      "iction": 2869,
      "Ġsupported": 2870,
      "Ġserve": 2871,
      "Ġtwisted": 2872,
      "Ġtaught": 2873,
      "Ġapparently": 2874,
      "Ġputting": 2875,
      "Ġemb": 2876,
      "Ġassume": 2877,
      "Ġcontrib": 2878,
      "Ġstra": 2879,
      "Ġcompet": 2880,
      "Ġregular": 2881,
      "Ġfell": 2882,
      "Ġhateful": 2883,
      "ails": 2884,
      "Ġdesign": 2885,
      "Ġrefer": 2886,
      "Ġrefuge": 2887,
      "Ġfemales": 2888,
      "ification": 2889,
      "Ġinsurance": 2890,
      "Ġhistor": 2891,
      "Ġ197": 2892,
      "Ġfunny": 2893,
      "Ġmurdered": 2894,
      "Ġphot": 2895,
      "Ġstanding": 2896,
      "Ġbannon": 2897,
      "Ġnorth": 2898,
      "Ġcharl": 2899,
      "Ġcharacter": 2900,
      "Ġmoral": 2901,
      "ledge": 2902,
      "Ġviews": 2903,
      "Ġguns": 2904,
      "Ġengage": 2905,
      "Ġpatr": 2906,
      "Ġclaims": 2907,
      "Ġturned": 2908,
      "Ġregarding": 2909,
      "Ġinterview": 2910,
      "Ġdrugs": 2911,
      "Ġeconomy": 2912,
      "Ġopinions": 2913,
      "Ġtotal": 2914,
      "Ġtotally": 2915,
      "Ġnazi": 2916,
      "Ġnazis": 2917,
      "Ġcompanies": 2918,
      "Ġimpact": 2919,
      "Ġangry": 2920,
      "Ġprocess": 2921,
      "Ġscience": 2922,
      "Ġbenefit": 2923,
      "Ġmodern": 2924,
      "Ġdebate": 2925,
      "Ġmagaz": 2926,
      "Ġdomin": 2927,
      "Ġremoved": 2928,
      "Ġpiece": 2929,
      "arciss": 2930,
      "Ġrule": 2931,
      "Ġoriginal": 2932,
      "Ġdefinition": 2933,
      "Ġthousands": 2934,
      "ville": 2935,
      "Ġversion": 2936,
      "Ġnecessary": 2937,
      "Ġsuccessful": 2938,
      "Ġsanders": 2939,
      "Ġfurther": 2940,
      "Ġtradition": 2941,
      "Ġjourn": 2942,
      "Ġamendment": 2943,
      "belie": 2944,
      "Ġprinci": 2945,
      "Ġpriesthood": 2946,
      "**": 2947,
      ",,": 2948,
      "08": 2949,
      "15": 2950,
      "aut": 2951,
      "band": 2952,
      "fact": 2953,
      "gu": 2954,
      "god": 2955,
      "hi": 2956,
      "iors": 2957,
      "ki": 2958,
      "mer": 2959,
      "mas": 2960,
      "mod": 2961,
      "nect": 2962,
      "off": 2963,
      "por": 2964,
      "post": 2965,
      "sp": 2966,
      "ser": 2967,
      "tain": 2968,
      "Ġ....": 2969,
      "Ġtv": 2970,
      "Ġtour": 2971,
      "Ġtired": 2972,
      "Ġtype": 2973,
      "Ġathe": 2974,
      "inity": 2975,
      "Ġwild": 2976,
      "Ġsite": 2977,
      "Ġsales": 2978,
      "Ġoreg": 2979,
      "Ġcop": 2980,
      "Ġcem": 2981,
      "Ġbible": 2982,
      "Ġbought": 2983,
      "itical": 2984,
      "enced": 2985,
      "ann": 2986,
      "Ġpm": 2987,
      "Ġpage": 2988,
      "Ġpull": 2989,
      "Ġanc": 2990,
      "Ġann": 2991,
      "orm": 2992,
      "Ġfoot": 2993,
      "Ġhus": 2994,
      "Ġharm": 2995,
      "Ġtowards": 2996,
      "Ġder": 2997,
      "Ġdist": 2998,
      "aling": 2999,
      "Ġine": 3000,
      "Ġinf": 3001,
      "lege": 3002,
      "Ġnone": 3003,
      "Ġnarciss": 3004,
      "arb": 3005,
      "aries": 3006,
      "asy": 3007,
      "aster": 3008,
      "asure": 3009,
      "Ġlord": 3010,
      "Ġliter": 3011,
      "Ġlgbt": 3012,
      "Ġyork": 3013,
      "Ġbear": 3014,
      "Ġwhom": 3015,
      "acc": 3016,
      "ids": 3017,
      "idency": 3018,
      "Ġheter": 3019,
      "Ġforced": 3020,
      "imed": 3021,
      "sex": 3022,
      "semit": 3023,
      "Ġarea": 3024,
      "Ġstore": 3025,
      "Ġstuff": 3026,
      "amed": 3027,
      "Ġtrou": 3028,
      "Ġtrash": 3029,
      "uments": 3030,
      "Ġneither": 3031,
      "essed": 3032,
      "essions": 3033,
      "Ġsoon": 3034,
      "anted": 3035,
      "ems": 3036,
      "Ġalleg": 3037,
      "ends": 3038,
      "oci": 3039,
      "oses": 3040,
      "Ġsuck": 3041,
      "ĠĠĠ": 3042,
      "Ġoutside": 3043,
      "rences": 3044,
      "ference": 3045,
      "Ġknowledge": 3046,
      "Ġarr": 3047,
      "Ġarmed": 3048,
      "Ġcrow": 3049,
      "Ġ11": 3050,
      "Ġ15": 3051,
      "Ġimagine": 3052,
      "Ġcount": 3053,
      "black": 3054,
      "Ġherself": 3055,
      "ounded": 3056,
      "Ġracists": 3057,
      "Ġresour": 3058,
      "Ġsaw": 3059,
      "Ġsafe": 3060,
      "......": 3061,
      "Ġspread": 3062,
      "Ġpresidency": 3063,
      "Ġincom": 3064,
      "Ġbrought": 3065,
      "Ġseeing": 3066,
      "ression": 3067,
      "Ġdrive": 3068,
      "Ġcommand": 3069,
      "force": 3070,
      "because": 3071,
      "Ġtwitter": 3072,
      "Ġlooked": 3073,
      "Ġremind": 3074,
      "Ġcalling": 3075,
      "Ġmayor": 3076,
      "Ġemp": 3077,
      "Ġassoci": 3078,
      "ception": 3079,
      "Ġregul": 3080,
      "Ġbasic": 3081,
      "Ġtaxpay": 3082,
      "Ġdeser": 3083,
      "Ġrefuse": 3084,
      "ording": 3085,
      "Ġenter": 3086,
      "uctive": 3087,
      "Ġuk": 3088,
      "Ġcomey": 3089,
      "formed": 3090,
      "Ġmeaning": 3091,
      "Ġmedical": 3092,
      "Ġlegit": 3093,
      "Ġphys": 3094,
      "Ġreasonable": 3095,
      "Ġhappening": 3096,
      "Ġpromised": 3097,
      "Ġinteresting": 3098,
      "Ġearly": 3099,
      "Ġexamples": 3100,
      "Ġhonor": 3101,
      "Ġmajor": 3102,
      "Ġformer": 3103,
      "Ġraised": 3104,
      "Ġstudies": 3105,
      "Ġgrowth": 3106,
      "Ġcentury": 3107,
      "Ġthoughts": 3108,
      "Ġcurious": 3109,
      "Ġweeks": 3110,
      "Ġauthority": 3111,
      "does": 3112,
      "Ġconcer": 3113,
      "Ġterms": 3114,
      "Ġbishop": 3115,
      "Ġdiscriminate": 3116,
      "Ġbreak": 3117,
      "Ġglobal": 3118,
      "Ġmov": 3119,
      "Ġstatistics": 3120,
      "Ġrussia": 3121,
      "Ġresponsible": 3122,
      "____": 3123,
      "Ġdiscussion": 3124,
      "Ġmoslem": 3125,
      "Ġtypical": 3126,
      "Ġmistake": 3127,
      "Ġanimals": 3128,
      "Ġtweet": 3129,
      "Ġmarket": 3130,
      "Ġhomosexuals": 3131,
      "Ġsource": 3132,
      "Ġcode": 3133,
      "Ġvarious": 3134,
      "women": 3135,
      "Ġwelcome": 3136,
      "Ġconversation": 3137,
      "Ġdemonstr": 3138,
      "Ġresearch": 3139,
      "Ġsharia": 3140,
      "Ġexecut": 3141,
      "Ġcabin": 3142,
      "Ġmouth": 3143,
      "oronto": 3144,
      "Ġbecame": 3145,
      "Ġontario": 3146,
      "Ġoregon": 3147,
      "!\"": 3148,
      "12": 3149,
      "ell": 3150,
      "gl": 3151,
      "gay": 3152,
      "joy": 3153,
      "ml": 3154,
      "ms": 3155,
      "riate": 3156,
      "sorry": 3157,
      "uous": 3158,
      "work": 3159,
      "Ġx": 3160,
      "ĠÂ": 3161,
      "Ġtoronto": 3162,
      "Ġak": 3163,
      "ino": 3164,
      "iny": 3165,
      "rel": 3166,
      "rep": 3167,
      "Ġsil": 3168,
      "Ġswe": 3169,
      "islam": 3170,
      "Ġcops": 3171,
      "erk": 3172,
      "Ġbs": 3173,
      "Ġbat": 3174,
      "Ġbul": 3175,
      "oned": 3176,
      "itor": 3177,
      "itions": 3178,
      "Ġpig": 3179,
      "Ġpun": 3180,
      "Ġmc": 3181,
      "order": 3182,
      "orney": 3183,
      "Ġfac": 3184,
      "Ġfil": 3185,
      "Ġfive": 3186,
      "Ġfox": 3187,
      "Ġfbi": 3188,
      "esville": 3189,
      "Ġhit": 3190,
      "edia": 3191,
      "Ġnet": 3192,
      "Ġgut": 3193,
      "Ġgarb": 3194,
      "Ġlack": 3195,
      "Ġlying": 3196,
      "Ġluck": 3197,
      "Ġbeat": 3198,
      "Ġeug": 3199,
      "accept": 3200,
      "uter": 3201,
      "Ġrom": 3202,
      "Ġrock": 3203,
      "iment": 3204,
      "vert": 3205,
      "Ġstated": 3206,
      "ural": 3207,
      "Ġweak": 3208,
      "Ġweren": 3209,
      "ills": 3210,
      "Ġproud": 3211,
      "Ġtraff": 3212,
      "Ġje": 3213,
      "ceed": 3214,
      "erson": 3215,
      "though": 3216,
      "Ġconfl": 3217,
      "Ġsemin": 3218,
      "ili": 3219,
      "ustry": 3220,
      "Ġvir": 3221,
      "estin": 3222,
      "Ġalone": 3223,
      "iful": 3224,
      "Ġuniversity": 3225,
      "Ġworry": 3226,
      "ously": 3227,
      "Ġanybody": 3228,
      "osing": 3229,
      "Ġjustify": 3230,
      "artment": 3231,
      "aked": 3232,
      "Ġoutr": 3233,
      "Ġknowing": 3234,
      "Ġintel": 3235,
      "actually": 3236,
      "Ġdisrespect": 3237,
      "apt": 3238,
      "Ġenjoy": 3239,
      "ogn": 3240,
      "which": 3241,
      "Ġadop": 3242,
      "Ġadmit": 3243,
      "Ġadults": 3244,
      "Ġshouldn": 3245,
      "Ġcounty": 3246,
      "Ġcouncil": 3247,
      "Ġeverybody": 3248,
      "Ġsaf": 3249,
      "Ġsaud": 3250,
      "Ġteen": 3251,
      "Ġteach": 3252,
      ".......": 3253,
      "Ġspent": 3254,
      "Ġprem": 3255,
      "Ġincident": 3256,
      "Ġparties": 3257,
      "Ġbrown": 3258,
      "Ġbrother": 3259,
      "Ġbritish": 3260,
      "Ġqual": 3261,
      "Ġrelated": 3262,
      "idered": 3263,
      "Ġobject": 3264,
      "Ġchurches": 3265,
      "icked": 3266,
      "ips": 3267,
      "Ġsexually": 3268,
      "Ġserial": 3269,
      "Ġelections": 3270,
      "Ġconsidered": 3271,
      "Ġdecl": 3272,
      "Ġappre": 3273,
      "Ġputin": 3274,
      "Ġstrate": 3275,
      "Ġstrugg": 3276,
      "Ġpolitically": 3277,
      "Ġposts": 3278,
      "Ġindustry": 3279,
      "Ġcoll": 3280,
      "Ġintegr": 3281,
      "Ġdefend": 3282,
      "Ġdefending": 3283,
      "ocked": 3284,
      "laud": 3285,
      "Ġcollege": 3286,
      "Ġreflect": 3287,
      "Ġparen": 3288,
      "Ġolder": 3289,
      "orders": 3290,
      "Ġinstitution": 3291,
      "Ġfarm": 3292,
      "Ġhealthcare": 3293,
      "Ġsometimes": 3294,
      "Ġbillion": 3295,
      "Ġarticles": 3296,
      "coming": 3297,
      "Ġshowed": 3298,
      "Ġattacked": 3299,
      "Ġminister": 3300,
      "Ġrespond": 3301,
      "Ġstandards": 3302,
      "Ġhomes": 3303,
      "Ġhomophob": 3304,
      "Ġsubject": 3305,
      "Ġapost": 3306,
      "Ġnormal": 3307,
      "idding": 3308,
      "Ġjudges": 3309,
      "Ġconstr": 3310,
      "Ġcarry": 3311,
      "Ġpathetic": 3312,
      "Ġconduct": 3313,
      "Ġraise": 3314,
      "Ġcenter": 3315,
      "Ġeducated": 3316,
      "Ġbigoted": 3317,
      "Ġbigotry": 3318,
      "Ġvalues": 3319,
      "Ġplayed": 3320,
      "nowfl": 3321,
      "Ġmarried": 3322,
      "Ġfailure": 3323,
      "mmmm": 3324,
      "Ġrequire": 3325,
      "Ġlearning": 3326,
      "Ġcitizen": 3327,
      "Ġharper": 3328,
      "Ġpolicies": 3329,
      "Ġcriminals": 3330,
      "Ġcorruption": 3331,
      "Ġidiots": 3332,
      "Ġruled": 3333,
      "Ġmentioned": 3334,
      "Ġhorrible": 3335,
      "Ġidentity": 3336,
      "canad": 3337,
      "Ġ2016": 3338,
      "Ġslavery": 3339,
      "Ġethnic": 3340,
      "Ġprimary": 3341,
      "Ġavoid": 3342,
      "Ġsacram": 3343,
      "Ġanimal": 3344,
      "Ġ70": 3345,
      "Ġunfortun": 3346,
      "Ġaccompl": 3347,
      "Ġmovement": 3348,
      "Ġmeeting": 3349,
      "Ġaware": 3350,
      "ottesville": 3351,
      "levant": 3352,
      "Ġlikes": 3353,
      "Ġorganization": 3354,
      "Ġrelationship": 3355,
      "Ġdaughter": 3356,
      "Ġfocus": 3357,
      "Ġafrican": 3358,
      "Ġdespite": 3359,
      "Ġcondemn": 3360,
      "Ġextremely": 3361,
      "Ġpicture": 3362,
      "Ġhours": 3363,
      "Ġdollars": 3364,
      "Ġminorities": 3365,
      "Ġpurpose": 3366,
      "Ġhierarchy": 3367,
      "ropriate": 3368,
      "Ġpraise": 3369,
      "Ġstraight": 3370,
      "Ġcharlottesville": 3371,
      "Ġmagazine": 3372,
      "Ġhusband": 3373,
      "Ġconcerned": 3374,
      "Ġeugene": 3375,
      "11": 3376,
      "17": 3377,
      "40": 3378,
      "bo": 3379,
      "ball": 3380,
      "book": 3381,
      "down": 3382,
      "eed": 3383,
      "free": 3384,
      "hillary": 3385,
      "ium": 3386,
      "iers": 3387,
      "iant": 3388,
      "lished": 3389,
      "mr": 3390,
      "mine": 3391,
      "oom": 3392,
      "pat": 3393,
      "rac": 3394,
      "rif": 3395,
      "son": 3396,
      "wr": 3397,
      "will": 3398,
      "wik": 3399,
      "yr": 3400,
      "ych": 3401,
      "Ġ*": 3402,
      "Ġ?": 3403,
      "Ġach": 3404,
      "Ġalex": 3405,
      "inst": 3406,
      "reen": 3407,
      "Ġsca": 3408,
      "Ġsong": 3409,
      "Ġsound": 3410,
      "Ġsens": 3411,
      "Ġsix": 3412,
      "Ġopt": 3413,
      "ata": 3414,
      "Ġcast": 3415,
      "Ġcreat": 3416,
      "erous": 3417,
      "Ġbarr": 3418,
      "Ġbern": 3419,
      "onial": 3420,
      "any": 3421,
      "ances": 3422,
      "Ġpi": 3423,
      "Ġpet": 3424,
      "Ġport": 3425,
      "Ġpence": 3426,
      "Ġpeter": 3427,
      "Ġmal": 3428,
      "Ġmir": 3429,
      "Ġmand": 3430,
      "Ġant": 3431,
      "oric": 3432,
      "Ġfit": 3433,
      "Ġfig": 3434,
      "Ġfant": 3435,
      "Ġfast": 3436,
      "Ġfine": 3437,
      "Ġfully": 3438,
      "Ġfield": 3439,
      "esis": 3440,
      "Ġhot": 3441,
      "Ġhating": 3442,
      "Ġhang": 3443,
      "Ġthug": 3444,
      "Ġdan": 3445,
      "Ġdad": 3446,
      "Ġdare": 3447,
      "Ġdark": 3448,
      "Ġdream": 3449,
      "ediate": 3450,
      "also": 3451,
      "alists": 3452,
      "Ġnuc": 3453,
      "Ġnatives": 3454,
      "arant": 3455,
      "arian": 3456,
      "arks": 3457,
      "iced": 3458,
      "icate": 3459,
      "Ġgary": 3460,
      "Ġlic": 3461,
      "Ġisis": 3462,
      "uses": 3463,
      "Ġii": 3464,
      "Ġep": 3465,
      "Ġeyes": 3466,
      "Ġrele": 3467,
      "Ġrepe": 3468,
      "Ġreact": 3469,
      "ential": 3470,
      "ached": 3471,
      "Ġrig": 3472,
      "Ġriot": 3473,
      "Ġrub": 3474,
      "Ġheld": 3475,
      "Ġheav": 3476,
      "sec": 3477,
      "Ġareas": 3478,
      "Ġstick": 3479,
      "oper": 3480,
      "amm": 3481,
      "irty": 3482,
      "key": 3483,
      "Ġjail": 3484,
      "Ġjames": 3485,
      "Ġlied": 3486,
      "cell": 3487,
      "Ġchr": 3488,
      "Ġchance": 3489,
      "Ġken": 3490,
      "Ġkore": 3491,
      "Ġkidding": 3492,
      "those": 3493,
      "Ġconse": 3494,
      "Ġconnect": 3495,
      "Ġwaste": 3496,
      "Ġord": 3497,
      "Ġcomb": 3498,
      "tery": 3499,
      "Ġvul": 3500,
      "Ġpeace": 3501,
      "antly": 3502,
      "antage": 3503,
      "ested": 3504,
      "estic": 3505,
      "umping": 3506,
      "Ġexpl": 3507,
      "Ġalber": 3508,
      "Ġalthough": 3509,
      "Ġunion": 3510,
      "ability": 3511,
      "tra": 3512,
      "Ġmanage": 3513,
      "people": 3514,
      "Ġanyway": 3515,
      "Ġmeant": 3516,
      "Ġjustin": 3517,
      "Ġblood": 3518,
      "Ġblaming": 3519,
      "aker": 3520,
      "Ġtherefore": 3521,
      "Ġdont": 3522,
      "Ġclin": 3523,
      "Ġclerg": 3524,
      "inking": 3525,
      "Ġart": 3526,
      "Ġevents": 3527,
      "Ġenforce": 3528,
      "Ġthinks": 3529,
      "Ġ12": 3530,
      "Ġ18": 3531,
      "inte": 3532,
      "Ġimply": 3533,
      "Ġresident": 3534,
      "Ġeverywhere": 3535,
      "iously": 3536,
      "Ġteam": 3537,
      "Ġaction": 3538,
      "Ġwanting": 3539,
      "Ġquit": 3540,
      "Ġguarant": 3541,
      "def": 3542,
      "ucks": 3543,
      "Ġproof": 3544,
      "Ġdrunk": 3545,
      "Ġattorney": 3546,
      "Ġcommit": 3547,
      "ocracy": 3548,
      "Ġsexist": 3549,
      "Ġelectric": 3550,
      "prom": 3551,
      "Ġpresidents": 3552,
      "Ġpresidential": 3553,
      "Ġappropriate": 3554,
      "Ġbigger": 3555,
      "Ġcomputer": 3556,
      "Ġhappy": 3557,
      "Ġuseless": 3558,
      "Ġposter": 3559,
      "Ġcontact": 3560,
      "Ġcontempt": 3561,
      "Ġimmediate": 3562,
      "Ġpointing": 3563,
      "Ġsimple": 3564,
      "ailable": 3565,
      "Ġrefused": 3566,
      "Ġboard": 3567,
      "Ġparis": 3568,
      "Ġinstance": 3569,
      "Ġentit": 3570,
      "whel": 3571,
      "Ġ199": 3572,
      "Ġcultures": 3573,
      "Ġgotten": 3574,
      "Ġincluded": 3575,
      "Ġglad": 3576,
      "Ġbank": 3577,
      "Ġcharge": 3578,
      "Ġviolent": 3579,
      "Ġengine": 3580,
      "Ġenglish": 3581,
      "Ġforever": 3582,
      "velop": 3583,
      "friend": 3584,
      "Ġcamp": 3585,
      "Ġreporting": 3586,
      "Ġreported": 3587,
      "Ġheadline": 3588,
      "Ġcommunities": 3589,
      "Ġprotecting": 3590,
      "ysis": 3591,
      "Ġopenly": 3592,
      "Ġpossibility": 3593,
      "Ġdeny": 3594,
      "Ġshooter": 3595,
      "Ġharass": 3596,
      "Ġresults": 3597,
      "Ġpredator": 3598,
      "Ġemployees": 3599,
      "coin": 3600,
      "going": 3601,
      "Ġbreast": 3602,
      "Ġfinan": 3603,
      "Ġlimits": 3604,
      "Ġwonderful": 3605,
      "Ġdivor": 3606,
      "Ġdivide": 3607,
      "Ġresponsibility": 3608,
      "Ġcapt": 3609,
      "Ġfirearm": 3610,
      "Ġparticip": 3611,
      "Ġattempting": 3612,
      "Ġbooks": 3613,
      "Ġloser": 3614,
      "Ġdepartment": 3615,
      "Ġcreated": 3616,
      "Ġavailable": 3617,
      "Ġscient": 3618,
      "Ġeventually": 3619,
      "Ġproduct": 3620,
      "Ġchanged": 3621,
      "Ġincreas": 3622,
      "Ġaccommod": 3623,
      "Ġreplace": 3624,
      "Ġspeculate": 3625,
      "Ġburning": 3626,
      "Ġhousing": 3627,
      "raph": 3628,
      "Ġmercy": 3629,
      "Ġlabor": 3630,
      "Ġintelligent": 3631,
      "called": 3632,
      "mean": 3633,
      "Ġcoward": 3634,
      "Ġnarrative": 3635,
      "Ġdocument": 3636,
      "Ġneighborhood": 3637,
      "Ġwitness": 3638,
      "Ġopposite": 3639,
      "Ġpalestin": 3640,
      "Ġanalysis": 3641,
      "Ġinflu": 3642,
      "Ġtechn": 3643,
      "Ġpregnancy": 3644,
      "Ġquebe": 3645,
      "Ġcontraceptives": 3646,
      "Ġindependent": 3647,
      "Ġestablished": 3648,
      "Ġugly": 3649,
      "Ġbathroom": 3650,
      "Ġenemy": 3651,
      "Ġrefugees": 3652,
      "Ġcemeter": 3653,
      "Ġliterally": 3654,
      "Ġtrouble": 3655,
      "Ġresources": 3656,
      "Ġcabinet": 3657,
      "Ġgarbage": 3658,
      "Ġtraffic": 3659,
      "Ġintellect": 3660,
      "Ġsafety": 3661,
      "Ġappreci": 3662,
      "Ġnuclear": 3663,
      "Ġclergies": 3664,
      "\"...": 3665,
      "aving": 3666,
      "bu": 3667,
      "back": 3668,
      "boy": 3669,
      "col": 3670,
      "given": 3671,
      "hh": 3672,
      "his": 3673,
      "hum": 3674,
      "hib": 3675,
      "have": 3676,
      "ires": 3677,
      "jesus": 3678,
      "kk": 3679,
      "lu": 3680,
      "law": 3681,
      "ma": 3682,
      "nbc": 3683,
      "ov": 3684,
      "oon": 3685,
      "oke": 3686,
      "pan": 3687,
      "ria": 3688,
      "ss": 3689,
      "sim": 3690,
      "say": 3691,
      "tw": 3692,
      "turn": 3693,
      "uk": 3694,
      "uit": 3695,
      "uary": 3696,
      "uage": 3697,
      "ufact": 3698,
      "val": 3699,
      "vol": 3700,
      "wers": 3701,
      "yan": 3702,
      "yle": 3703,
      "yeah": 3704,
      "Ã©": 3705,
      "Ġess": 3706,
      "Ġ??": 3707,
      "Ġtal": 3708,
      "Ġtact": 3709,
      "Ġtick": 3710,
      "Ġaut": 3711,
      "hey": 3712,
      "ina": 3713,
      "inct": 3714,
      "ination": 3715,
      "rer": 3716,
      "Ġwis": 3717,
      "Ġwind": 3718,
      "Ġsan": 3719,
      "Ġsle": 3720,
      "Ġsore": 3721,
      "Ġsport": 3722,
      "Ġscript": 3723,
      "Ġsnowfl": 3724,
      "isis": 3725,
      "isions": 3726,
      "ature": 3727,
      "Ġcy": 3728,
      "Ġcat": 3729,
      "ero": 3730,
      "eria": 3731,
      "Ġbc": 3732,
      "Ġbon": 3733,
      "Ġborders": 3734,
      "Ġpack": 3735,
      "Ġmac": 3736,
      "Ġmut": 3737,
      "Ġmach": 3738,
      "Ġmix": 3739,
      "Ġmike": 3740,
      "oring": 3741,
      "oral": 3742,
      "orter": 3743,
      "Ġfing": 3744,
      "Ġfle": 3745,
      "Ġfish": 3746,
      "Ġfue": 3747,
      "Ġfood": 3748,
      "Ġfired": 3749,
      "Ġhol": 3750,
      "Ġhire": 3751,
      "Ġhtt": 3752,
      "Ġhiding": 3753,
      "Ġtoward": 3754,
      "Ġdu": 3755,
      "Ġdied": 3756,
      "Ġdav": 3757,
      "Ġdivid": 3758,
      "Ġdistr": 3759,
      "Ġdumb": 3760,
      "Ġdata": 3761,
      "alist": 3762,
      "Ġnice": 3763,
      "Ġnfl": 3764,
      "Ġnames": 3765,
      "arians": 3766,
      "icr": 3767,
      "ication": 3768,
      "icide": 3769,
      "Ġgame": 3770,
      "Ġlit": 3771,
      "Ġles": 3772,
      "Ġlun": 3773,
      "Ġlight": 3774,
      "Ġlang": 3775,
      "Ġlane": 3776,
      "Ġyeah": 3777,
      "Ġbeaut": 3778,
      "Ġec": 3779,
      "Ġeight": 3780,
      "vey": 3781,
      "Ġreach": 3782,
      "Ġrat": 3783,
      "Ġrout": 3784,
      "Ġrhet": 3785,
      "Ġonline": 3786,
      "verse": 3787,
      "set": 3788,
      "opath": 3789,
      "urg": 3790,
      "urs": 3791,
      "Ġwearing": 3792,
      "istence": 3793,
      "ades": 3794,
      "Ġjim": 3795,
      "umn": 3796,
      "uming": 3797,
      "change": 3798,
      "Ġdoor": 3799,
      "Ġchos": 3800,
      "Ġchose": 3801,
      "Ġchall": 3802,
      "Ġchief": 3803,
      "Ġkkk": 3804,
      "Ġdevelop": 3805,
      "Ġgospe": 3806,
      "Ġwashington": 3807,
      "ilities": 3808,
      "Ġorders": 3809,
      "Ġaband": 3810,
      "Ġability": 3811,
      "Ġwhose": 3812,
      "Ġvo": 3813,
      "Ġvile": 3814,
      "Ġvatic": 3815,
      "ored": 3816,
      "Ġcancer": 3817,
      "ival": 3818,
      "Ġexcess": 3819,
      "aine": 3820,
      "aining": 3821,
      "ifies": 3822,
      "Ġund": 3823,
      "abs": 3824,
      "Ġmanufact": 3825,
      "ansas": 3826,
      "Ġanymore": 3827,
      "Ġsuc": 3828,
      "Ġsudd": 3829,
      "Ġsuicide": 3830,
      "Ġtrumps": 3831,
      "Ġblind": 3832,
      "Ġaggress": 3833,
      "Ġclue": 3834,
      "Ġclown": 3835,
      "fered": 3836,
      "agand": 3837,
      "Ġgrabb": 3838,
      "Ġarch": 3839,
      "Ġmyth": 3840,
      "Ġmyself": 3841,
      "Ġdism": 3842,
      "Ġdisci": 3843,
      "Ġdispl": 3844,
      "asty": 3845,
      "ograph": 3846,
      "Ġcrazy": 3847,
      "Ġplus": 3848,
      "Ġ16": 3849,
      "Ġimpr": 3850,
      "Ġoverwhel": 3851,
      "els": 3852,
      "Ġtext": 3853,
      "Ġactive": 3854,
      "awa": 3855,
      "Ġspr": 3856,
      "Ġspan": 3857,
      "Ġoffensive": 3858,
      "Ġpress": 3859,
      "Ġ21": 3860,
      "Ġ25": 3861,
      "Ġwriter": 3862,
      "Ġparts": 3863,
      "Ġbrut": 3864,
      "Ġvotes": 3865,
      "Ġquick": 3866,
      "Ġperm": 3867,
      "Ġperfect": 3868,
      "Ġperpet": 3869,
      "uced": 3870,
      "Ġreput": 3871,
      "Ġdraw": 3872,
      "ipedia": 3873,
      "Ġperspect": 3874,
      "Ġsexism": 3875,
      "Ġcouldn": 3876,
      "Ġsupporting": 3877,
      "Ġterrible": 3878,
      "Ġgovernor": 3879,
      "Ġtwice": 3880,
      "arrass": 3881,
      "Ġlooks": 3882,
      "Ġapplaud": 3883,
      "Ġbuying": 3884,
      "Ġaccused": 3885,
      "Ġstrong": 3886,
      "Ġstraw": 3887,
      "Ġcorpor": 3888,
      "Ġcold": 3889,
      "Ġbasis": 3890,
      "Ġmater": 3891,
      "ocking": 3892,
      "Ġdescrib": 3893,
      "Ġkept": 3894,
      "Ġcolumn": 3895,
      "Ġsyn": 3896,
      "ifications": 3897,
      "Ġlesson": 3898,
      "Ġinsult": 3899,
      "Ġrecogn": 3900,
      "Ġrole": 3901,
      "Ġroot": 3902,
      "Ġimmigrant": 3903,
      "Ġattacking": 3904,
      "Ġmurders": 3905,
      "Ġphone": 3906,
      "too": 3907,
      "Ġsurv": 3908,
      "Ġpromote": 3909,
      "Ġsubst": 3910,
      "Ġnewsp": 3911,
      "Ġkeeps": 3912,
      "Ġapart": 3913,
      "parent": 3914,
      "Ġpropagand": 3915,
      "Ġoppon": 3916,
      "Ġopportun": 3917,
      "armed": 3918,
      "Ġpretend": 3919,
      "Ġpopular": 3920,
      "Ġirre": 3921,
      "Ġirish": 3922,
      "Ġheads": 3923,
      "Ġadvantage": 3924,
      "Ġplaying": 3925,
      "Ġplayers": 3926,
      "Ġrespected": 3927,
      "Ġlands": 3928,
      "Ġabortions": 3929,
      "Ġminds": 3930,
      "Ġcell": 3931,
      "Ġconcl": 3932,
      "Ġconcern": 3933,
      "Ġlearned": 3934,
      "Ġinterpre": 3935,
      "Ġconfir": 3936,
      "Ġconfused": 3937,
      "Ġhypocritical": 3938,
      "Ġpredict": 3939,
      "Ġlevels": 3940,
      "Ġemployers": 3941,
      "Ġgeneration": 3942,
      "Ġgenerations": 3943,
      "Ġsett": 3944,
      "Ġsignific": 3945,
      "Ġpassed": 3946,
      "Ġeconomic": 3947,
      "Ġlater": 3948,
      "Ġcritical": 3949,
      "Ġzero": 3950,
      "Ġmeth": 3951,
      "Ġrooms": 3952,
      "Ġdestroyed": 3953,
      "Ġreceive": 3954,
      "Ġsurprise": 3955,
      "Ġidentified": 3956,
      "Ġradicalized": 3957,
      "Ġanglic": 3958,
      "Ġ2017": 3959,
      "Ġtypes": 3960,
      "Ġethics": 3961,
      "Ġprofessor": 3962,
      "Ġsenate": 3963,
      "Ġhurt": 3964,
      "Ġsuffering": 3965,
      "Ġbenefits": 3966,
      "Ġwalking": 3967,
      "Ġchanges": 3968,
      "Ġincrease": 3969,
      "Ġeuropean": 3970,
      "Ġdomestic": 3971,
      "Ġreplaced": 3972,
      "Ġspeculating": 3973,
      "news": 3974,
      "Ġpractice": 3975,
      "Ġspiritual": 3976,
      "Ġpushed": 3977,
      "Ġhouses": 3978,
      "Ġinternet": 3979,
      "Ġpromoting": 3980,
      "Ġleadership": 3981,
      "Ġillnesses": 3982,
      "Ġcredibility": 3983,
      "Ġlogic": 3984,
      "Ġ1980": 3985,
      "Ġteachers": 3986,
      "Ġcelebrate": 3987,
      "Ġutter": 3988,
      "Ġbomb": 3989,
      "Ġbehavior": 3990,
      "Ġtransgender": 3991,
      "Ġspecifically": 3992,
      "Ġtreated": 3993,
      "Ġbabies": 3994,
      "Ġdangerous": 3995,
      "Ġexcuse": 3996,
      "Ġspoiled": 3997,
      "Ġquotes": 3998,
      "Ġencourage": 3999,
      "Ġaverage": 4000,
      "Ġhostile": 4001,
      "christian": 4002,
      "Ġembarrass": 4003,
      "Ġfellow": 4004,
      "semitic": 4005,
      "Ġmovie": 4006,
      "Ġconflict": 4007,
      "Ġoutrage": 4008,
      "Ġsaudi": 4009,
      "Ġstrategy": 4010,
      "Ġintegrity": 4011,
      "Ġunfortunately": 4012,
      "Ġachie": 4013,
      "Ġfantasy": 4014,
      "Ġkorea": 4015,
      "Ġvulner": 4016,
      "interest": 4017,
      "Ġentitled": 4018,
      "Ġpalestinians": 4019,
      "Ġsleep": 4020,
      "Ġrhetoric": 4021,
      "Ġchosen": 4022,
      "Ġchallen": 4023,
      "Ġvatican": 4024,
      "Ġsudden": 4025,
      "Ġoverwhelming": 4026,
      "Ġperspective": 4027,
      "Ġopportunity": 4028,
      "$$": 4029,
      "))": 4030,
      "?)": 4031,
      "aud": 4032,
      "aven": 4033,
      "bet": 4034,
      "bish": 4035,
      "born": 4036,
      "cle": 4037,
      "dy": 4038,
      "dog": 4039,
      "ein": 4040,
      "every": 4041,
      "fort": 4042,
      "face": 4043,
      "fail": 4044,
      "gree": 4045,
      "greg": 4046,
      "hon": 4047,
      "hate": 4048,
      "iet": 4049,
      "ience": 4050,
      "ients": 4051,
      "ique": 4052,
      "jud": 4053,
      "jury": 4054,
      "know": 4055,
      "kows": 4056,
      "lo": 4057,
      "lol": 4058,
      "oor": 4059,
      "oly": 4060,
      "och": 4061,
      "ral": 4062,
      "sc": 4063,
      "some": 4064,
      "town": 4065,
      "uz": 4066,
      "vin": 4067,
      "wood": 4068,
      "yl": 4069,
      "Ġ:": 4070,
      "Ġ;": 4071,
      "Ġult": 4072,
      "Ġ!!": 4073,
      "ĠâĢĶ": 4074,
      "Ġtem": 4075,
      "Ġtab": 4076,
      "Ġtear": 4077,
      "Ġahead": 4078,
      "Ġaimed": 4079,
      "herent": 4080,
      "inated": 4081,
      "inary": 4082,
      "inals": 4083,
      "inating": 4084,
      "informed": 4085,
      "Ġwise": 4086,
      "Ġsi": 4087,
      "Ġsake": 4088,
      "Ġspl": 4089,
      "Ġsides": 4090,
      "Ġsessions": 4091,
      "isher": 4092,
      "atr": 4093,
      "atant": 4094,
      "Ġcite": 4095
    },
    "merges": [
      [
        "Ġ",
        "t"
      ],
      [
        "Ġ",
        "a"
      ],
      [
        "h",
        "e"
      ],
      [
        "i",
        "n"
      ],
      [
        "r",
        "e"
      ],
      [
        "Ġ",
        "w"
      ],
      [
        "Ġt",
        "he"
      ],
      [
        "Ġ",
        "s"
      ],
      [
        "Ġ",
        "o"
      ],
      [
        "i",
        "s"
      ],
      [
        "a",
        "t"
      ],
      [
        "Ġ",
        "c"
      ],
      [
        "e",
        "r"
      ],
      [
        "Ġ",
        "b"
      ],
      [
        "o",
        "u"
      ],
      [
        "o",
        "n"
      ],
      [
        "i",
        "t"
      ],
      [
        "e",
        "n"
      ],
      [
        "a",
        "n"
      ],
      [
        "Ġ",
        "p"
      ],
      [
        "Ġ",
        "m"
      ],
      [
        "Ġa",
        "n"
      ],
      [
        "in",
        "g"
      ],
      [
        "o",
        "r"
      ],
      [
        "Ġ",
        "f"
      ],
      [
        "e",
        "s"
      ],
      [
        "Ġ",
        "h"
      ],
      [
        "Ġt",
        "o"
      ],
      [
        "Ġt",
        "h"
      ],
      [
        "Ġ",
        "d"
      ],
      [
        "e",
        "d"
      ],
      [
        "a",
        "l"
      ],
      [
        "Ġan",
        "d"
      ],
      [
        "Ġo",
        "f"
      ],
      [
        "Ġ",
        "in"
      ],
      [
        "l",
        "e"
      ],
      [
        "Ġ",
        "n"
      ],
      [
        "a",
        "r"
      ],
      [
        "i",
        "c"
      ],
      [
        "o",
        "m"
      ],
      [
        "a",
        "s"
      ],
      [
        "Ġ",
        "g"
      ],
      [
        "Ġ",
        "l"
      ],
      [
        "l",
        "l"
      ],
      [
        "Ġ",
        "y"
      ],
      [
        "o",
        "t"
      ],
      [
        "Ġ",
        "is"
      ],
      [
        "u",
        "s"
      ],
      [
        "Ġb",
        "e"
      ],
      [
        "Ġ",
        "i"
      ],
      [
        "Ġ",
        "e"
      ],
      [
        "i",
        "on"
      ],
      [
        "Ġw",
        "h"
      ],
      [
        "Ġy",
        "ou"
      ],
      [
        "Ġth",
        "at"
      ],
      [
        "v",
        "e"
      ],
      [
        "l",
        "y"
      ],
      [
        "Ġ",
        "re"
      ],
      [
        "en",
        "t"
      ],
      [
        "a",
        "c"
      ],
      [
        "o",
        "w"
      ],
      [
        "u",
        "t"
      ],
      [
        "Ġ",
        "it"
      ],
      [
        ".",
        "."
      ],
      [
        "Ġ",
        "r"
      ],
      [
        "i",
        "d"
      ],
      [
        "l",
        "d"
      ],
      [
        "Ġ",
        "he"
      ],
      [
        "Ġo",
        "n"
      ],
      [
        "Ġf",
        "or"
      ],
      [
        "i",
        "m"
      ],
      [
        "s",
        "t"
      ],
      [
        "v",
        "er"
      ],
      [
        "a",
        "y"
      ],
      [
        "i",
        "g"
      ],
      [
        "Ġh",
        "a"
      ],
      [
        "s",
        "e"
      ],
      [
        "Ġa",
        "re"
      ],
      [
        "Ġs",
        "t"
      ],
      [
        "o",
        "p"
      ],
      [
        "u",
        "r"
      ],
      [
        "o",
        "l"
      ],
      [
        "Ġw",
        "e"
      ],
      [
        "e",
        "t"
      ],
      [
        "a",
        "m"
      ],
      [
        "Ġn",
        "ot"
      ],
      [
        "is",
        "t"
      ],
      [
        "i",
        "ll"
      ],
      [
        "a",
        "d"
      ],
      [
        "u",
        "n"
      ],
      [
        "i",
        "r"
      ],
      [
        "Ġa",
        "s"
      ],
      [
        "Ġp",
        "r"
      ],
      [
        "it",
        "h"
      ],
      [
        "k",
        "e"
      ],
      [
        "c",
        "t"
      ],
      [
        "'",
        "s"
      ],
      [
        "Ġt",
        "r"
      ],
      [
        "Ġ",
        "j"
      ],
      [
        "u",
        "m"
      ],
      [
        "Ġw",
        "ith"
      ],
      [
        "c",
        "h"
      ],
      [
        "t",
        "he"
      ],
      [
        "ou",
        "ld"
      ],
      [
        "Ġl",
        "i"
      ],
      [
        "c",
        "e"
      ],
      [
        "Ġd",
        "o"
      ],
      [
        "'",
        "t"
      ],
      [
        "u",
        "p"
      ],
      [
        "Ġc",
        "h"
      ],
      [
        "er",
        "s"
      ],
      [
        "Ġthe",
        "y"
      ],
      [
        "Ġ",
        "\""
      ],
      [
        "Ġha",
        "ve"
      ],
      [
        "at",
        "e"
      ],
      [
        "Ġ",
        "k"
      ],
      [
        "t",
        "h"
      ],
      [
        "at",
        "ion"
      ],
      [
        "Ġc",
        "on"
      ],
      [
        "an",
        "d"
      ],
      [
        "Ġd",
        "e"
      ],
      [
        "Ġg",
        "o"
      ],
      [
        "Ġw",
        "as"
      ],
      [
        "Ġs",
        "e"
      ],
      [
        "u",
        "l"
      ],
      [
        "i",
        "l"
      ],
      [
        "h",
        "t"
      ],
      [
        "Ġo",
        "r"
      ],
      [
        "Ġa",
        "b"
      ],
      [
        "Ġth",
        "is"
      ],
      [
        "Ġwh",
        "o"
      ],
      [
        "Ġc",
        "om"
      ],
      [
        "us",
        "t"
      ],
      [
        "t",
        "er"
      ],
      [
        "Ġn",
        "e"
      ],
      [
        "Ġ",
        "v"
      ],
      [
        "o",
        "re"
      ],
      [
        "Ġa",
        "ll"
      ],
      [
        "es",
        "s"
      ],
      [
        "Ġa",
        "t"
      ],
      [
        "Ġs",
        "o"
      ],
      [
        "Ġp",
        "e"
      ],
      [
        "Ġs",
        "h"
      ],
      [
        "Ġc",
        "an"
      ],
      [
        "Ġf",
        "r"
      ],
      [
        "ou",
        "t"
      ],
      [
        "an",
        "t"
      ],
      [
        "op",
        "le"
      ],
      [
        "es",
        "t"
      ],
      [
        "it",
        "y"
      ],
      [
        "Ġpe",
        "ople"
      ],
      [
        "g",
        "e"
      ],
      [
        "ou",
        "n"
      ],
      [
        "Ġ",
        "le"
      ],
      [
        "ac",
        "k"
      ],
      [
        "m",
        "ent"
      ],
      [
        "o",
        "d"
      ],
      [
        "it",
        "e"
      ],
      [
        "Ġb",
        "ut"
      ],
      [
        "um",
        "p"
      ],
      [
        "Ġwh",
        "at"
      ],
      [
        "ig",
        "ht"
      ],
      [
        "i",
        "v"
      ],
      [
        "re",
        "s"
      ],
      [
        "Ġe",
        "x"
      ],
      [
        "Ġb",
        "y"
      ],
      [
        "Ġthe",
        "ir"
      ],
      [
        "a",
        "in"
      ],
      [
        "e",
        "m"
      ],
      [
        "Ġa",
        "l"
      ],
      [
        "i",
        "f"
      ],
      [
        "Ġ",
        "un"
      ],
      [
        "Ġh",
        "is"
      ],
      [
        "Ġw",
        "om"
      ],
      [
        "on",
        "e"
      ],
      [
        "al",
        "ly"
      ],
      [
        "Ġab",
        "out"
      ],
      [
        "om",
        "e"
      ],
      [
        "Ġyou",
        "r"
      ],
      [
        "a",
        "b"
      ],
      [
        "o",
        "st"
      ],
      [
        "Ġw",
        "or"
      ],
      [
        "t",
        "r"
      ],
      [
        "Ġm",
        "an"
      ],
      [
        "us",
        "e"
      ],
      [
        "p",
        "e"
      ],
      [
        "en",
        "d"
      ],
      [
        "o",
        "c"
      ],
      [
        "or",
        "t"
      ],
      [
        "Ġw",
        "ould"
      ],
      [
        "Ġw",
        "ill"
      ],
      [
        "an",
        "s"
      ],
      [
        "i",
        "ve"
      ],
      [
        "Ġfr",
        "om"
      ],
      [
        "ou",
        "s"
      ],
      [
        "Ġan",
        "y"
      ],
      [
        "o",
        "s"
      ],
      [
        "i",
        "es"
      ],
      [
        "he",
        "r"
      ],
      [
        "Ġh",
        "as"
      ],
      [
        "Ġm",
        "e"
      ],
      [
        "Ġw",
        "he"
      ],
      [
        "q",
        "u"
      ],
      [
        "Ġj",
        "ust"
      ],
      [
        "Ġs",
        "u"
      ],
      [
        "i",
        "e"
      ],
      [
        "Ġtr",
        "ump"
      ],
      [
        "..",
        "."
      ],
      [
        "o",
        "b"
      ],
      [
        "ver",
        "y"
      ],
      [
        "Ġli",
        "ke"
      ],
      [
        "Ġa",
        "m"
      ],
      [
        "Ġ",
        "Ġ"
      ],
      [
        "Ġi",
        "f"
      ],
      [
        "the",
        "r"
      ],
      [
        "Ġk",
        "n"
      ],
      [
        "Ġb",
        "l"
      ],
      [
        "re",
        "d"
      ],
      [
        "ar",
        "t"
      ],
      [
        "a",
        "ke"
      ],
      [
        "Ġ",
        "("
      ],
      [
        "a",
        "k"
      ],
      [
        "Ġo",
        "ut"
      ],
      [
        "Ġ",
        "us"
      ],
      [
        "Ġthe",
        "m"
      ],
      [
        "u",
        "d"
      ],
      [
        "Ġthe",
        "re"
      ],
      [
        "c",
        "a"
      ],
      [
        "Ġa",
        "g"
      ],
      [
        "re",
        "n"
      ],
      [
        "ou",
        "r"
      ],
      [
        "Ġ",
        "up"
      ],
      [
        "p",
        "p"
      ],
      [
        "Ġd",
        "on"
      ],
      [
        "o",
        "se"
      ],
      [
        "Ġm",
        "ore"
      ],
      [
        "al",
        "l"
      ],
      [
        "Ġc",
        "l"
      ],
      [
        "Ġn",
        "o"
      ],
      [
        "am",
        "e"
      ],
      [
        "Ġon",
        "e"
      ],
      [
        "Ġwh",
        "ite"
      ],
      [
        "Ġwom",
        "en"
      ],
      [
        "f",
        "e"
      ],
      [
        "e",
        "ar"
      ],
      [
        "ar",
        "d"
      ],
      [
        "Ġg",
        "et"
      ],
      [
        "Ġkn",
        "ow"
      ],
      [
        "Ġin",
        "t"
      ],
      [
        "Ġo",
        "ther"
      ],
      [
        "ac",
        "t"
      ],
      [
        "in",
        "k"
      ],
      [
        "Ġo",
        "ur"
      ],
      [
        "a",
        "g"
      ],
      [
        "Ġwe",
        "re"
      ],
      [
        "Ġg",
        "r"
      ],
      [
        "Ġa",
        "r"
      ],
      [
        "on",
        "g"
      ],
      [
        "Ġm",
        "y"
      ],
      [
        "Ġth",
        "an"
      ],
      [
        "Ġd",
        "is"
      ],
      [
        "a",
        "p"
      ],
      [
        "Ġs",
        "up"
      ],
      [
        "Ġs",
        "ome"
      ],
      [
        "Ġh",
        "ow"
      ],
      [
        "Ġe",
        "v"
      ],
      [
        "i",
        "b"
      ],
      [
        "ca",
        "use"
      ],
      [
        "o",
        "k"
      ],
      [
        "ul",
        "t"
      ],
      [
        "Ġ",
        "en"
      ],
      [
        "c",
        "i"
      ],
      [
        "in",
        "d"
      ],
      [
        "as",
        "t"
      ],
      [
        "o",
        "g"
      ],
      [
        "ou",
        "g"
      ],
      [
        "i",
        "an"
      ],
      [
        "w",
        "h"
      ],
      [
        "p",
        "l"
      ],
      [
        "is",
        "h"
      ],
      [
        "Ġbe",
        "cause"
      ],
      [
        "Ġwhe",
        "n"
      ],
      [
        "â",
        "Ģ"
      ],
      [
        "p",
        "t"
      ],
      [
        "Ġa",
        "d"
      ],
      [
        "p",
        "ort"
      ],
      [
        "Ġs",
        "ay"
      ],
      [
        "at",
        "h"
      ],
      [
        "i",
        "a"
      ],
      [
        "i",
        "z"
      ],
      [
        "at",
        "ed"
      ],
      [
        "Ġbe",
        "en"
      ],
      [
        "ic",
        "e"
      ],
      [
        "Ġy",
        "ear"
      ],
      [
        "Ġ",
        "-"
      ],
      [
        "Ġr",
        "ight"
      ],
      [
        "u",
        "e"
      ],
      [
        "Ġc",
        "r"
      ],
      [
        "d",
        "er"
      ],
      [
        "s",
        "o"
      ],
      [
        "u",
        "re"
      ],
      [
        "Ġth",
        "ink"
      ],
      [
        "Ġp",
        "l"
      ],
      [
        "Ġ",
        "1"
      ],
      [
        "in",
        "t"
      ],
      [
        "Ġs",
        "he"
      ],
      [
        "Ġi",
        "m"
      ],
      [
        "im",
        "e"
      ],
      [
        "Ġdo",
        "es"
      ],
      [
        "Ġsh",
        "ould"
      ],
      [
        "Ġc",
        "oun"
      ],
      [
        "Ġl",
        "o"
      ],
      [
        "b",
        "l"
      ],
      [
        "ion",
        "s"
      ],
      [
        "Ġhe",
        "r"
      ],
      [
        "oun",
        "d"
      ],
      [
        "Ġo",
        "ver"
      ],
      [
        "Ġr",
        "ac"
      ],
      [
        "Ġre",
        "s"
      ],
      [
        "Ġe",
        "very"
      ],
      [
        "h",
        "ing"
      ],
      [
        "l",
        "im"
      ],
      [
        "in",
        "e"
      ],
      [
        "ar",
        "y"
      ],
      [
        "Ġon",
        "ly"
      ],
      [
        "Ġs",
        "a"
      ],
      [
        "Ġp",
        "ol"
      ],
      [
        "ic",
        "al"
      ],
      [
        "Ġbl",
        "ack"
      ],
      [
        "e",
        "l"
      ],
      [
        "i",
        "ous"
      ],
      [
        "Ġd",
        "id"
      ],
      [
        "ic",
        "h"
      ],
      [
        "Ġt",
        "e"
      ],
      [
        "en",
        "ce"
      ],
      [
        "Ġm",
        "us"
      ],
      [
        "Ġh",
        "im"
      ],
      [
        "Ġha",
        "d"
      ],
      [
        "Ġa",
        "ct"
      ],
      [
        "er",
        "ic"
      ],
      [
        "..",
        ".."
      ],
      [
        "Ġman",
        "y"
      ],
      [
        "a",
        "w"
      ],
      [
        "a",
        "re"
      ],
      [
        "u",
        "al"
      ],
      [
        "b",
        "er"
      ],
      [
        "Ġw",
        "ant"
      ],
      [
        "Ġs",
        "p"
      ],
      [
        "Ġof",
        "f"
      ],
      [
        "0",
        "0"
      ],
      [
        "a",
        "ge"
      ],
      [
        "le",
        "ct"
      ],
      [
        "Ġag",
        "ain"
      ],
      [
        "w",
        "e"
      ],
      [
        "Ġp",
        "re"
      ],
      [
        "Ġbe",
        "ing"
      ],
      [
        "k",
        "s"
      ],
      [
        "Ġa",
        "f"
      ],
      [
        "Ġp",
        "res"
      ],
      [
        "Ġth",
        "ose"
      ],
      [
        "Ġ",
        "2"
      ],
      [
        "Ġa",
        "c"
      ],
      [
        "ab",
        "le"
      ],
      [
        "Ġmus",
        "lim"
      ],
      [
        "u",
        "g"
      ],
      [
        "se",
        "l"
      ],
      [
        "i",
        "ld"
      ],
      [
        "Ġne",
        "ed"
      ],
      [
        "e",
        "w"
      ],
      [
        "Ġin",
        "c"
      ],
      [
        "re",
        "e"
      ],
      [
        "as",
        "s"
      ],
      [
        "ist",
        "s"
      ],
      [
        "i",
        "le"
      ],
      [
        "Ġw",
        "r"
      ],
      [
        "en",
        "s"
      ],
      [
        "Ġp",
        "art"
      ],
      [
        "Ġn",
        "ow"
      ],
      [
        "p",
        "le"
      ],
      [
        "Ġb",
        "r"
      ],
      [
        "Ġv",
        "ot"
      ],
      [
        ".",
        "\""
      ],
      [
        "Ġ",
        "qu"
      ],
      [
        "Ġth",
        "ing"
      ],
      [
        "Ġg",
        "u"
      ],
      [
        "Ġam",
        "eric"
      ],
      [
        "r",
        "ist"
      ],
      [
        "u",
        "bl"
      ],
      [
        "Ġt",
        "ime"
      ],
      [
        "Ġthe",
        "se"
      ],
      [
        "is",
        "m"
      ],
      [
        "Ġp",
        "o"
      ],
      [
        "Ġp",
        "er"
      ],
      [
        "ow",
        "n"
      ],
      [
        "Ġse",
        "e"
      ],
      [
        "Ġgo",
        "od"
      ],
      [
        "oug",
        "h"
      ],
      [
        "Ġ",
        "Ċ"
      ],
      [
        "Ġcoun",
        "tr"
      ],
      [
        "t",
        "ing"
      ],
      [
        "Ġev",
        "en"
      ],
      [
        "ubl",
        "ic"
      ],
      [
        "re",
        "at"
      ],
      [
        "or",
        "y"
      ],
      [
        "Ġwor",
        "k"
      ],
      [
        "w",
        "ay"
      ],
      [
        "Ġw",
        "ay"
      ],
      [
        "d",
        "e"
      ],
      [
        "Ġre",
        "l"
      ],
      [
        "o",
        "y"
      ],
      [
        "Ġwh",
        "y"
      ],
      [
        "ac",
        "e"
      ],
      [
        "u",
        "c"
      ],
      [
        "u",
        "ch"
      ],
      [
        "Ġm",
        "ake"
      ],
      [
        "Ġre",
        "p"
      ],
      [
        "id",
        "e"
      ],
      [
        "res",
        "s"
      ],
      [
        "Ġyear",
        "s"
      ],
      [
        "'",
        "re"
      ],
      [
        "Ġbe",
        "t"
      ],
      [
        "id",
        "ent"
      ],
      [
        "Ġpr",
        "o"
      ],
      [
        "w",
        "n"
      ],
      [
        "Ġo",
        "b"
      ],
      [
        "Ġch",
        "rist"
      ],
      [
        "Ġd",
        "r"
      ],
      [
        "Ġint",
        "o"
      ],
      [
        "v",
        "es"
      ],
      [
        "Ġwh",
        "ich"
      ],
      [
        "Ġne",
        "w"
      ],
      [
        "Ġat",
        "t"
      ],
      [
        "or",
        "s"
      ],
      [
        "ic",
        "t"
      ],
      [
        "Ġch",
        "ur"
      ],
      [
        "i",
        "re"
      ],
      [
        "Ġs",
        "pe"
      ],
      [
        "Ġm",
        "ost"
      ],
      [
        "Ġf",
        "a"
      ],
      [
        "ic",
        "k"
      ],
      [
        "Ġst",
        "ate"
      ],
      [
        "i",
        "al"
      ],
      [
        "Ġs",
        "ame"
      ],
      [
        "ol",
        "ic"
      ],
      [
        "r",
        "y"
      ],
      [
        "v",
        "ing"
      ],
      [
        "Ġthe",
        "n"
      ],
      [
        "an",
        "ce"
      ],
      [
        "ot",
        "her"
      ],
      [
        "ad",
        "e"
      ],
      [
        "i",
        "p"
      ],
      [
        "Ġm",
        "uch"
      ],
      [
        "Ġcom",
        "m"
      ],
      [
        "Ġwom",
        "an"
      ],
      [
        "f",
        "or"
      ],
      [
        "on",
        "s"
      ],
      [
        "as",
        "e"
      ],
      [
        "ig",
        "n"
      ],
      [
        "Ġpr",
        "ob"
      ],
      [
        "i",
        "ans"
      ],
      [
        "Ġp",
        "ers"
      ],
      [
        "Ġbe",
        "l"
      ],
      [
        "f",
        "f"
      ],
      [
        "Ġo",
        "wn"
      ],
      [
        "Ġde",
        "m"
      ],
      [
        "Ġcan",
        "ad"
      ],
      [
        "ren",
        "t"
      ],
      [
        "ath",
        "olic"
      ],
      [
        "Ġchur",
        "ch"
      ],
      [
        "oc",
        "r"
      ],
      [
        "at",
        "es"
      ],
      [
        "Ġse",
        "x"
      ],
      [
        "e",
        "p"
      ],
      [
        "re",
        "m"
      ],
      [
        "al",
        "e"
      ],
      [
        "Ġal",
        "so"
      ],
      [
        "Ġc",
        "ould"
      ],
      [
        "Ġb",
        "ack"
      ],
      [
        "Ġm",
        "en"
      ],
      [
        "Ġsup",
        "port"
      ],
      [
        "t",
        "y"
      ],
      [
        "u",
        "ll"
      ],
      [
        "Ġwor",
        "ld"
      ],
      [
        "b",
        "e"
      ],
      [
        "Ġs",
        "er"
      ],
      [
        "Ġt",
        "er"
      ],
      [
        "al",
        "k"
      ],
      [
        "le",
        "m"
      ],
      [
        "Ġe",
        "lect"
      ],
      [
        "Ġhe",
        "re"
      ],
      [
        "ver",
        "n"
      ],
      [
        "Ġl",
        "aw"
      ],
      [
        "y",
        "ou"
      ],
      [
        "Ġcon",
        "s"
      ],
      [
        "Ġun",
        "der"
      ],
      [
        "pe",
        "ct"
      ],
      [
        "Ġgo",
        "vern"
      ],
      [
        "i",
        "ed"
      ],
      [
        "p",
        "r"
      ],
      [
        "v",
        "ed"
      ],
      [
        "Ġsa",
        "id"
      ],
      [
        "p",
        "er"
      ],
      [
        "Ġ",
        "very"
      ],
      [
        "Ġt",
        "w"
      ],
      [
        "Ġc",
        "atholic"
      ],
      [
        "ar",
        "r"
      ],
      [
        "Ġpers",
        "on"
      ],
      [
        "Ġbel",
        "ie"
      ],
      [
        "Ġk",
        "ill"
      ],
      [
        "Ġlo",
        "ok"
      ],
      [
        "op",
        "e"
      ],
      [
        "Ġpres",
        "ident"
      ],
      [
        "f",
        "t"
      ],
      [
        "Ġc",
        "our"
      ],
      [
        "Ġre",
        "m"
      ],
      [
        "sel",
        "f"
      ],
      [
        "a",
        "z"
      ],
      [
        "f",
        "ul"
      ],
      [
        "Ġc",
        "all"
      ],
      [
        "Ġde",
        "c"
      ],
      [
        "Ġne",
        "ver"
      ],
      [
        "i",
        "ly"
      ],
      [
        "l",
        "am"
      ],
      [
        "Ġt",
        "a"
      ],
      [
        "it",
        "t"
      ],
      [
        "Ġcom",
        "ment"
      ],
      [
        "c",
        "r"
      ],
      [
        "Ġa",
        "pp"
      ],
      [
        "Ġp",
        "ut"
      ],
      [
        "Ġm",
        "ay"
      ],
      [
        "al",
        "s"
      ],
      [
        "Ġe",
        "m"
      ],
      [
        "Ġre",
        "al"
      ],
      [
        "Ġas",
        "s"
      ],
      [
        "Ġgo",
        "ing"
      ],
      [
        "Ġagain",
        "st"
      ],
      [
        "'",
        "m"
      ],
      [
        "y",
        "ing"
      ],
      [
        "Ġf",
        "act"
      ],
      [
        "Ġch",
        "ild"
      ],
      [
        "ation",
        "s"
      ],
      [
        "Ġaf",
        "ter"
      ],
      [
        "c",
        "on"
      ],
      [
        "l",
        "ess"
      ],
      [
        "at",
        "ive"
      ],
      [
        "Ġf",
        "ir"
      ],
      [
        "ib",
        "le"
      ],
      [
        "-",
        "-"
      ],
      [
        "o",
        "od"
      ],
      [
        "Ġb",
        "u"
      ],
      [
        "ce",
        "pt"
      ],
      [
        "Ġcountr",
        "y"
      ],
      [
        "!",
        "!"
      ],
      [
        "ur",
        "n"
      ],
      [
        "Ġcon",
        "tr"
      ],
      [
        "Ġac",
        "c"
      ],
      [
        "is",
        "e"
      ],
      [
        "Ġst",
        "r"
      ],
      [
        "ĠĠ",
        "Ċ"
      ],
      [
        "Ġpol",
        "it"
      ],
      [
        "Ġgovern",
        "ment"
      ],
      [
        "o",
        "ol"
      ],
      [
        "u",
        "ally"
      ],
      [
        "Ġle",
        "t"
      ],
      [
        "e",
        "ct"
      ],
      [
        "t",
        "e"
      ],
      [
        "Ġc",
        "or"
      ],
      [
        "Ġin",
        "v"
      ],
      [
        "Ġl",
        "ong"
      ],
      [
        "Ġfir",
        "st"
      ],
      [
        "Ġ",
        "'"
      ],
      [
        "Ġto",
        "o"
      ],
      [
        "th",
        "ing"
      ],
      [
        "Ġwhe",
        "re"
      ],
      [
        "f",
        "ore"
      ],
      [
        "at",
        "ing"
      ],
      [
        "Ġb",
        "ig"
      ],
      [
        "Ġd",
        "if"
      ],
      [
        "ic",
        "s"
      ],
      [
        "Ġso",
        "ci"
      ],
      [
        "n",
        "ot"
      ],
      [
        "ver",
        "s"
      ],
      [
        "Ġcom",
        "p"
      ],
      [
        "Ġprob",
        "lem"
      ],
      [
        "g",
        "n"
      ],
      [
        "Ġre",
        "g"
      ],
      [
        "ow",
        "er"
      ],
      [
        "Ġha",
        "pp"
      ],
      [
        "Ġrel",
        "ig"
      ],
      [
        "Ġ",
        "use"
      ],
      [
        "Ġs",
        "ch"
      ],
      [
        "an",
        "g"
      ],
      [
        "Ġp",
        "ost"
      ],
      [
        "Ġf",
        "e"
      ],
      [
        "Ġin",
        "d"
      ],
      [
        "ent",
        "s"
      ],
      [
        "ut",
        "h"
      ],
      [
        "Ġwe",
        "ll"
      ],
      [
        "Ġcon",
        "t"
      ],
      [
        "t",
        "ic"
      ],
      [
        "Ġsu",
        "ch"
      ],
      [
        "wh",
        "at"
      ],
      [
        "o",
        "h"
      ],
      [
        "Ġm",
        "ent"
      ],
      [
        "al",
        "th"
      ],
      [
        "Ġli",
        "fe"
      ],
      [
        "one",
        "y"
      ],
      [
        "Ġim",
        "m"
      ],
      [
        "p",
        "s"
      ],
      [
        "Ġc",
        "o"
      ],
      [
        "Ġb",
        "as"
      ],
      [
        "ak",
        "ing"
      ],
      [
        "Ġint",
        "e"
      ],
      [
        "Ġh",
        "ate"
      ],
      [
        "Ġpo",
        "int"
      ],
      [
        "Ġta",
        "x"
      ],
      [
        "Ġt",
        "alk"
      ],
      [
        "an",
        "ge"
      ],
      [
        "Ġit",
        "s"
      ],
      [
        "th",
        "is"
      ],
      [
        "ter",
        "n"
      ],
      [
        "iv",
        "es"
      ],
      [
        "Ġbet",
        "ter"
      ],
      [
        "a",
        "h"
      ],
      [
        "c",
        "y"
      ],
      [
        "n",
        "ing"
      ],
      [
        "Ġc",
        "le"
      ],
      [
        "Ġm",
        "at"
      ],
      [
        "Ġm",
        "ade"
      ],
      [
        "Ġf",
        "am"
      ],
      [
        "Ġg",
        "ay"
      ],
      [
        "Ġis",
        "s"
      ],
      [
        "Ġre",
        "ally"
      ],
      [
        "Ġde",
        "f"
      ],
      [
        "oc",
        "k"
      ],
      [
        "Ġrac",
        "ist"
      ],
      [
        "Ġmuslim",
        "s"
      ],
      [
        "u",
        "es"
      ],
      [
        "Ġs",
        "im"
      ],
      [
        "Ġis",
        "lam"
      ],
      [
        "st",
        "and"
      ],
      [
        "Ġpr",
        "ot"
      ],
      [
        "a",
        "il"
      ],
      [
        "r",
        "or"
      ],
      [
        "Ġt",
        "ake"
      ],
      [
        "he",
        "d"
      ],
      [
        "it",
        "ion"
      ],
      [
        "Ġan",
        "other"
      ],
      [
        "Ġd",
        "es"
      ],
      [
        "Ġd",
        "ay"
      ],
      [
        "ig",
        "h"
      ],
      [
        "ig",
        "r"
      ],
      [
        "up",
        "id"
      ],
      [
        "os",
        "s"
      ],
      [
        "Ġgr",
        "ou"
      ],
      [
        "âĢ",
        "Ļ"
      ],
      [
        "Ġte",
        "ll"
      ],
      [
        "Ġgu",
        "y"
      ],
      [
        "l",
        "a"
      ],
      [
        "Ġ",
        "ke"
      ],
      [
        "Ġc",
        "ol"
      ],
      [
        "Ġm",
        "oney"
      ],
      [
        "Ġg",
        "en"
      ],
      [
        "Ġwh",
        "ile"
      ],
      [
        "Ġre",
        "f"
      ],
      [
        "im",
        "es"
      ],
      [
        "Ġst",
        "ill"
      ],
      [
        "Ġli",
        "ber"
      ],
      [
        "Ġcanad",
        "a"
      ],
      [
        "ocr",
        "at"
      ],
      [
        "\"",
        "."
      ],
      [
        "g",
        "et"
      ],
      [
        "r",
        "o"
      ],
      [
        "Ġb",
        "o"
      ],
      [
        "Ġm",
        "ill"
      ],
      [
        "Ġf",
        "em"
      ],
      [
        "Ġd",
        "own"
      ],
      [
        "Ġbe",
        "fore"
      ],
      [
        "Ġgo",
        "d"
      ],
      [
        "Ġdoes",
        "n"
      ],
      [
        "re",
        "st"
      ],
      [
        "Ġw",
        "on"
      ],
      [
        "Ġp",
        "a"
      ],
      [
        "Ġe",
        "l"
      ],
      [
        "Ġinc",
        "l"
      ],
      [
        "?",
        "?"
      ],
      [
        "Ġs",
        "y"
      ],
      [
        "Ġo",
        "ld"
      ],
      [
        "is",
        "s"
      ],
      [
        "Ġb",
        "us"
      ],
      [
        "Ġp",
        "ar"
      ],
      [
        "Ġp",
        "ay"
      ],
      [
        "or",
        "d"
      ],
      [
        "Ġin",
        "st"
      ],
      [
        "Ġn",
        "ation"
      ],
      [
        "Ġi",
        "gn"
      ],
      [
        "im",
        "in"
      ],
      [
        "if",
        "ic"
      ],
      [
        "oug",
        "ht"
      ],
      [
        "Ġwr",
        "ong"
      ],
      [
        "Ġrep",
        "ublic"
      ],
      [
        "Ġdif",
        "fe"
      ],
      [
        "v",
        "en"
      ],
      [
        "Ġo",
        "p"
      ],
      [
        "Ġl",
        "ess"
      ],
      [
        "Ġre",
        "ad"
      ],
      [
        "ac",
        "h"
      ],
      [
        "Ġst",
        "op"
      ],
      [
        "Ġst",
        "upid"
      ],
      [
        "Ġnot",
        "hing"
      ],
      [
        "Ġj",
        "ew"
      ],
      [
        "Ġse",
        "em"
      ],
      [
        "ak",
        "es"
      ],
      [
        "Ġcl",
        "int"
      ],
      [
        "Ġthing",
        "s"
      ],
      [
        "Ġchrist",
        "ian"
      ],
      [
        "r",
        "a"
      ],
      [
        "Ġ",
        "ent"
      ],
      [
        "Ġs",
        "c"
      ],
      [
        "Ġs",
        "in"
      ],
      [
        "Ġth",
        "r"
      ],
      [
        "Ġin",
        "s"
      ],
      [
        "Ġe",
        "ver"
      ],
      [
        "Ġre",
        "c"
      ],
      [
        "Ġle",
        "ft"
      ],
      [
        "Ġsu",
        "re"
      ],
      [
        "ie",
        "w"
      ],
      [
        "Ġdid",
        "n"
      ],
      [
        "u",
        "ct"
      ],
      [
        "Ġ",
        "u"
      ],
      [
        "at",
        "her"
      ],
      [
        "Ġh",
        "ist"
      ],
      [
        "Ġcom",
        "e"
      ],
      [
        "Ġclint",
        "on"
      ],
      [
        "o",
        "ve"
      ],
      [
        "w",
        "he"
      ],
      [
        "Ġs",
        "om"
      ],
      [
        "Ġp",
        "ublic"
      ],
      [
        "or",
        "ity"
      ],
      [
        "Ġh",
        "um"
      ],
      [
        "Ġr",
        "o"
      ],
      [
        "Ġhe",
        "l"
      ],
      [
        "Ġsup",
        "rem"
      ],
      [
        "for",
        "m"
      ],
      [
        "Ġsch",
        "ool"
      ],
      [
        "'",
        "ve"
      ],
      [
        "y",
        "p"
      ],
      [
        "Ġb",
        "ot"
      ],
      [
        "Ġf",
        "l"
      ],
      [
        "as",
        "on"
      ],
      [
        "Ġme",
        "an"
      ],
      [
        "Ġdem",
        "ocrat"
      ],
      [
        "Ġbelie",
        "ve"
      ],
      [
        "Ġimm",
        "igr"
      ],
      [
        "c",
        "es"
      ],
      [
        "er",
        "t"
      ],
      [
        "Ġf",
        "ar"
      ],
      [
        "us",
        "s"
      ],
      [
        "ut",
        "ion"
      ],
      [
        "Ġhe",
        "alth"
      ],
      [
        "Ġ1",
        "9"
      ],
      [
        "Ġchild",
        "ren"
      ],
      [
        "Ġsom",
        "et"
      ],
      [
        "Ġb",
        "ill"
      ],
      [
        "en",
        "se"
      ],
      [
        "Ġm",
        "ed"
      ],
      [
        "Ġm",
        "ar"
      ],
      [
        "Ġm",
        "ust"
      ],
      [
        "Ġh",
        "and"
      ],
      [
        "Ġi",
        "d"
      ],
      [
        "Ġj",
        "ob"
      ],
      [
        "Ġar",
        "tic"
      ],
      [
        "c",
        "om"
      ],
      [
        "n",
        "o"
      ],
      [
        "t",
        "s"
      ],
      [
        "Ġc",
        "are"
      ],
      [
        "it",
        "s"
      ],
      [
        "tr",
        "ump"
      ],
      [
        "Ġright",
        "s"
      ],
      [
        "Ġevery",
        "one"
      ],
      [
        "Ġtw",
        "o"
      ],
      [
        "i",
        "end"
      ],
      [
        "n",
        "e"
      ],
      [
        "o",
        "ll"
      ],
      [
        "Ġ",
        "&"
      ],
      [
        "Ġc",
        "he"
      ],
      [
        "Ġc",
        "ult"
      ],
      [
        "er",
        "al"
      ],
      [
        "Ġf",
        "un"
      ],
      [
        "Ġg",
        "ot"
      ],
      [
        "Ġg",
        "reat"
      ],
      [
        "Ġr",
        "un"
      ],
      [
        "Ġsh",
        "ow"
      ],
      [
        "Ġany",
        "one"
      ],
      [
        "Ġatt",
        "ack"
      ],
      [
        "Ġter",
        "ror"
      ],
      [
        "Ġp",
        "ower"
      ],
      [
        "Ġm",
        "in"
      ],
      [
        "Ġm",
        "ur"
      ],
      [
        "Ġres",
        "p"
      ],
      [
        "way",
        "s"
      ],
      [
        "Ġunder",
        "stand"
      ],
      [
        "0",
        "1"
      ],
      [
        "l",
        "es"
      ],
      [
        "m",
        "an"
      ],
      [
        "p",
        "ly"
      ],
      [
        "t",
        "i"
      ],
      [
        "am",
        "a"
      ],
      [
        "Ġdo",
        "ing"
      ],
      [
        "il",
        "ity"
      ],
      [
        "ant",
        "s"
      ],
      [
        "Ġle",
        "g"
      ],
      [
        "Ġvot",
        "e"
      ],
      [
        "Ġameric",
        "a"
      ],
      [
        "Ġcour",
        "se"
      ],
      [
        "Ġincl",
        "ud"
      ],
      [
        "d",
        "ay"
      ],
      [
        "n",
        "ess"
      ],
      [
        "Ġa",
        "way"
      ],
      [
        "Ġs",
        "m"
      ],
      [
        "Ġp",
        "h"
      ],
      [
        "ar",
        "s"
      ],
      [
        "ic",
        "ally"
      ],
      [
        "Ġl",
        "ast"
      ],
      [
        "Ġre",
        "ason"
      ],
      [
        "Ġst",
        "and"
      ],
      [
        "ol",
        "og"
      ],
      [
        "Ġal",
        "ways"
      ],
      [
        "âĢ",
        "ľ"
      ],
      [
        "Ġhapp",
        "en"
      ],
      [
        "c",
        "ome"
      ],
      [
        "n",
        "ed"
      ],
      [
        "t",
        "o"
      ],
      [
        "v",
        "ious"
      ],
      [
        "it",
        "her"
      ],
      [
        "le",
        "g"
      ],
      [
        "Ġg",
        "l"
      ],
      [
        "Ġl",
        "ot"
      ],
      [
        "Ġbe",
        "h"
      ],
      [
        "od",
        "y"
      ],
      [
        "iz",
        "e"
      ],
      [
        "a",
        "ve"
      ],
      [
        "c",
        "c"
      ],
      [
        "f",
        "l"
      ],
      [
        "Ġ",
        "ed"
      ],
      [
        "Ġs",
        "ur"
      ],
      [
        "is",
        "ed"
      ],
      [
        "Ġh",
        "ome"
      ],
      [
        "âĢ",
        "Ŀ"
      ],
      [
        "Ġmat",
        "ter"
      ],
      [
        "Ġhist",
        "ory"
      ],
      [
        "x",
        "t"
      ],
      [
        "Ġ",
        "$"
      ],
      [
        "Ġ",
        "end"
      ],
      [
        "in",
        "ess"
      ],
      [
        "Ġc",
        "a"
      ],
      [
        "Ġm",
        "ight"
      ],
      [
        "Ġh",
        "om"
      ],
      [
        "Ġpr",
        "om"
      ],
      [
        "iv",
        "en"
      ],
      [
        "Ġsu",
        "b"
      ],
      [
        "Ġad",
        "d"
      ],
      [
        "Ġnew",
        "s"
      ],
      [
        "Ġinte",
        "rest"
      ],
      [
        "Ġke",
        "ep"
      ],
      [
        "Ġbot",
        "h"
      ],
      [
        "Ġsomet",
        "hing"
      ],
      [
        "c",
        "ed"
      ],
      [
        "i",
        "ol"
      ],
      [
        "w",
        "ard"
      ],
      [
        "Ġ",
        "5"
      ],
      [
        "Ġa",
        "p"
      ],
      [
        "er",
        "v"
      ],
      [
        "Ġb",
        "an"
      ],
      [
        "it",
        "ies"
      ],
      [
        "Ġn",
        "or"
      ],
      [
        "id",
        "d"
      ],
      [
        "Ġk",
        "ind"
      ],
      [
        "Ġany",
        "thing"
      ],
      [
        "Ġsome",
        "one"
      ],
      [
        "Ġrelig",
        "ion"
      ],
      [
        "Ġhel",
        "p"
      ],
      [
        ")",
        "."
      ],
      [
        "a",
        "j"
      ],
      [
        "b",
        "ers"
      ],
      [
        "c",
        "k"
      ],
      [
        "o",
        "ot"
      ],
      [
        "p",
        "a"
      ],
      [
        "Ġ",
        "3"
      ],
      [
        "Ġ",
        "4"
      ],
      [
        "re",
        "ad"
      ],
      [
        "Ġc",
        "iv"
      ],
      [
        "Ġm",
        "ale"
      ],
      [
        "Ġe",
        "ar"
      ],
      [
        "et",
        "y"
      ],
      [
        "Ġpr",
        "op"
      ],
      [
        "Ġwith",
        "out"
      ],
      [
        "Ġch",
        "ar"
      ],
      [
        "Ġde",
        "al"
      ],
      [
        "Ġcom",
        "ple"
      ],
      [
        "Ġex",
        "am"
      ],
      [
        "Ġcont",
        "in"
      ],
      [
        "Ġsuprem",
        "ac"
      ],
      [
        "a",
        "v"
      ],
      [
        "h",
        "ip"
      ],
      [
        "n",
        "g"
      ],
      [
        "r",
        "ic"
      ],
      [
        "Ġm",
        "on"
      ],
      [
        "Ġm",
        "or"
      ],
      [
        "es",
        "us"
      ],
      [
        "Ġi",
        "de"
      ],
      [
        "Ġas",
        "k"
      ],
      [
        "Ġtr",
        "ans"
      ],
      [
        "Ġj",
        "ud"
      ],
      [
        "Ġall",
        "ow"
      ],
      [
        "Ġfr",
        "iend"
      ],
      [
        "fe",
        "ct"
      ],
      [
        "Ġar",
        "ound"
      ],
      [
        "iz",
        "ed"
      ],
      [
        "Ġpl",
        "ace"
      ],
      [
        "Ġqu",
        "est"
      ],
      [
        "Ġfam",
        "ily"
      ],
      [
        "b",
        "t"
      ],
      [
        "o",
        "ld"
      ],
      [
        "Ġb",
        "ad"
      ],
      [
        "Ġf",
        "ind"
      ],
      [
        "Ġf",
        "ree"
      ],
      [
        "as",
        "k"
      ],
      [
        "Ġe",
        "qu"
      ],
      [
        "Ġtr",
        "ying"
      ],
      [
        "Ġcon",
        "st"
      ],
      [
        "Ġle",
        "ad"
      ],
      [
        "Ġother",
        "s"
      ],
      [
        "sel",
        "ves"
      ],
      [
        "Ġpart",
        "y"
      ],
      [
        "Ġcountr",
        "ies"
      ],
      [
        "Ġel",
        "se"
      ],
      [
        "Ġhum",
        "an"
      ],
      [
        "Ġartic",
        "le"
      ],
      [
        "h",
        "ow"
      ],
      [
        "l",
        "i"
      ],
      [
        "l",
        "ed"
      ],
      [
        "m",
        "in"
      ],
      [
        "t",
        "c"
      ],
      [
        "w",
        "w"
      ],
      [
        "Ġ",
        "."
      ],
      [
        "he",
        "s"
      ],
      [
        "Ġp",
        "le"
      ],
      [
        "Ġm",
        "em"
      ],
      [
        "Ġh",
        "on"
      ],
      [
        "Ġn",
        "um"
      ],
      [
        "ir",
        "l"
      ],
      [
        "Ġv",
        "iol"
      ],
      [
        "Ġlo",
        "ve"
      ],
      [
        "Ġpol",
        "ice"
      ],
      [
        "Ġsin",
        "ce"
      ],
      [
        "b",
        "ut"
      ],
      [
        "o",
        "f"
      ],
      [
        "Ġo",
        "pp"
      ],
      [
        "it",
        "ed"
      ],
      [
        "Ġan",
        "ti"
      ],
      [
        "ar",
        "m"
      ],
      [
        "Ġy",
        "et"
      ],
      [
        "Ġis",
        "n"
      ],
      [
        "Ġyou",
        "ng"
      ],
      [
        "Ġst",
        "art"
      ],
      [
        "Ġli",
        "ve"
      ],
      [
        "Ġv",
        "iew"
      ],
      [
        "Ġus",
        "ed"
      ],
      [
        "Ġpre",
        "t"
      ],
      [
        "Ġob",
        "ama"
      ],
      [
        "Ġfe",
        "el"
      ],
      [
        "Ġbus",
        "iness"
      ],
      [
        "Ġign",
        "or"
      ],
      [
        "Ġthr",
        "ough"
      ],
      [
        "i",
        "ot"
      ],
      [
        "r",
        "am"
      ],
      [
        "Ġc",
        "ar"
      ],
      [
        "Ġb",
        "oy"
      ],
      [
        "en",
        "e"
      ],
      [
        "Ġp",
        "op"
      ],
      [
        "Ġe",
        "as"
      ],
      [
        "th",
        "at"
      ],
      [
        "ment",
        "s"
      ],
      [
        "Ġ-",
        "-"
      ],
      [
        "Ġcall",
        "ed"
      ],
      [
        "itt",
        "le"
      ],
      [
        "Ġcontr",
        "ol"
      ],
      [
        "Ġt",
        "imes"
      ],
      [
        "er",
        "g"
      ],
      [
        "Ġd",
        "one"
      ],
      [
        "Ġn",
        "on"
      ],
      [
        "Ġg",
        "un"
      ],
      [
        "Ġy",
        "es"
      ],
      [
        "op",
        "s"
      ],
      [
        "ill",
        "ary"
      ],
      [
        "Ġen",
        "g"
      ],
      [
        "00",
        "0"
      ],
      [
        "ug",
        "ht"
      ],
      [
        "Ġameric",
        "an"
      ],
      [
        "Ġelect",
        "ion"
      ],
      [
        "Ġcle",
        "ar"
      ],
      [
        "Ġciv",
        "il"
      ],
      [
        "d",
        "s"
      ],
      [
        "i",
        "x"
      ],
      [
        "i",
        "red"
      ],
      [
        "re",
        "ct"
      ],
      [
        "er",
        "ing"
      ],
      [
        "it",
        "es"
      ],
      [
        "Ġm",
        "is"
      ],
      [
        "Ġm",
        "aj"
      ],
      [
        "ing",
        "s"
      ],
      [
        "Ġf",
        "ore"
      ],
      [
        "al",
        "es"
      ],
      [
        "ve",
        "l"
      ],
      [
        "ut",
        "e"
      ],
      [
        "Ġfor",
        "m"
      ],
      [
        "Ġha",
        "ving"
      ],
      [
        "Ġst",
        "ates"
      ],
      [
        "Ġtr",
        "ue"
      ],
      [
        "Ġex",
        "t"
      ],
      [
        "ab",
        "ly"
      ],
      [
        "Ġcomment",
        "s"
      ],
      [
        "Ġinv",
        "est"
      ],
      [
        "Ġsim",
        "ply"
      ],
      [
        "Ġdiffe",
        "rent"
      ],
      [
        "Ġcult",
        "ure"
      ],
      [
        "Ġcomple",
        "te"
      ],
      [
        "a",
        "im"
      ],
      [
        "Ġp",
        "at"
      ],
      [
        "Ġf",
        "ed"
      ],
      [
        "Ġf",
        "ew"
      ],
      [
        "Ġn",
        "ame"
      ],
      [
        "Ġl",
        "ittle"
      ],
      [
        "Ġe",
        "tc"
      ],
      [
        "Ġpr",
        "og"
      ],
      [
        "Ġj",
        "esus"
      ],
      [
        "Ġch",
        "in"
      ],
      [
        "Ġcon",
        "d"
      ],
      [
        "ul",
        "ar"
      ],
      [
        "Ġex",
        "p"
      ],
      [
        "end",
        "er"
      ],
      [
        "os",
        "ed"
      ],
      [
        "ud",
        "e"
      ],
      [
        "Ġcl",
        "aim"
      ],
      [
        "pl",
        "ain"
      ],
      [
        "Ġameric",
        "ans"
      ],
      [
        "Ġfem",
        "ale"
      ],
      [
        "Ġmed",
        "ia"
      ],
      [
        "/",
        "/"
      ],
      [
        ":",
        "//"
      ],
      [
        "f",
        "r"
      ],
      [
        "g",
        "r"
      ],
      [
        "l",
        "f"
      ],
      [
        "Ġc",
        "am"
      ],
      [
        "it",
        "ing"
      ],
      [
        "or",
        "n"
      ],
      [
        "Ġg",
        "irl"
      ],
      [
        "Ġr",
        "a"
      ],
      [
        "Ġst",
        "ud"
      ],
      [
        "Ġpr",
        "i"
      ],
      [
        "the",
        "re"
      ],
      [
        "Ġch",
        "ange"
      ],
      [
        "Ġal",
        "ask"
      ],
      [
        "Ġgr",
        "ow"
      ],
      [
        "wh",
        "ite"
      ],
      [
        "Ġpro",
        "f"
      ],
      [
        "Ġsex",
        "ual"
      ],
      [
        "Ġbas",
        "ed"
      ],
      [
        "Ġnation",
        "al"
      ],
      [
        "g",
        "est"
      ],
      [
        "i",
        "er"
      ],
      [
        "t",
        "en"
      ],
      [
        "Ġt",
        "urn"
      ],
      [
        "Ġw",
        "at"
      ],
      [
        "Ġw",
        "ar"
      ],
      [
        "Ġo",
        "il"
      ],
      [
        "Ġc",
        "ent"
      ],
      [
        "on",
        "d"
      ],
      [
        "Ġh",
        "igh"
      ],
      [
        "Ġto",
        "day"
      ],
      [
        "ot",
        "e"
      ],
      [
        "Ġi",
        "l"
      ],
      [
        "Ġi",
        "r"
      ],
      [
        "Ġe",
        "ither"
      ],
      [
        "Ġre",
        "port"
      ],
      [
        "st",
        "em"
      ],
      [
        "Ġst",
        "ory"
      ],
      [
        "et",
        "s"
      ],
      [
        "Ġpr",
        "iv"
      ],
      [
        "Ġcan",
        "not"
      ],
      [
        "iv",
        "id"
      ],
      [
        "Ġsoci",
        "ety"
      ],
      [
        "Ġiss",
        "ue"
      ],
      [
        "Ġgrou",
        "p"
      ],
      [
        "Ġed",
        "uc"
      ],
      [
        "b",
        "r"
      ],
      [
        "Ġ",
        "..."
      ],
      [
        "Ġw",
        "a"
      ],
      [
        "Ġs",
        "it"
      ],
      [
        "Ġc",
        "ity"
      ],
      [
        "Ġc",
        "ost"
      ],
      [
        "er",
        "n"
      ],
      [
        "Ġp",
        "os"
      ],
      [
        "Ġth",
        "ought"
      ],
      [
        "us",
        "ed"
      ],
      [
        "Ġhe",
        "ad"
      ],
      [
        "im",
        "ate"
      ],
      [
        "Ġare",
        "n"
      ],
      [
        "Ġtr",
        "uth"
      ],
      [
        "up",
        "t"
      ],
      [
        "Ġk",
        "id"
      ],
      [
        "Ġex",
        "per"
      ],
      [
        "em",
        "pt"
      ],
      [
        "Ġun",
        "t"
      ],
      [
        "Ġthem",
        "selves"
      ],
      [
        "Ġget",
        "ting"
      ],
      [
        "Ġen",
        "ough"
      ],
      [
        "Ġpro",
        "v"
      ],
      [
        "Ġob",
        "vious"
      ],
      [
        "Ġcomm",
        "un"
      ],
      [
        "ull",
        "y"
      ],
      [
        "cr",
        "imin"
      ],
      [
        "Ġbig",
        "ot"
      ],
      [
        "Ġsy",
        "stem"
      ],
      [
        "\"",
        ","
      ],
      [
        "'",
        "d"
      ],
      [
        "m",
        "ost"
      ],
      [
        "at",
        "ives"
      ],
      [
        "Ġc",
        "ur"
      ],
      [
        "it",
        "ution"
      ],
      [
        "en",
        "cy"
      ],
      [
        "Ġf",
        "ol"
      ],
      [
        "es",
        "tern"
      ],
      [
        "Ġh",
        "ard"
      ],
      [
        "Ġi",
        "ll"
      ],
      [
        "ac",
        "y"
      ],
      [
        "Ġr",
        "id"
      ],
      [
        "Ġv",
        "al"
      ],
      [
        "Ġlike",
        "ly"
      ],
      [
        "Ġdis",
        "c"
      ],
      [
        "Ġad",
        "v"
      ],
      [
        "Ġpl",
        "ay"
      ],
      [
        "Ġrac",
        "ism"
      ],
      [
        "Ġres",
        "pect"
      ],
      [
        "Ġte",
        "ac"
      ],
      [
        "we",
        "en"
      ],
      [
        "Ġvot",
        "ed"
      ],
      [
        "uc",
        "k"
      ],
      [
        "Ġser",
        "v"
      ],
      [
        "Ġlaw",
        "s"
      ],
      [
        "Ġbu",
        "ild"
      ],
      [
        "Ġreg",
        "ard"
      ],
      [
        "Ġment",
        "al"
      ],
      [
        "Ġprot",
        "ect"
      ],
      [
        "Ġliber",
        "al"
      ],
      [
        "Ġmill",
        "ion"
      ],
      [
        "idd",
        "le"
      ],
      [
        "j",
        "ect"
      ],
      [
        "n",
        "ow"
      ],
      [
        "y",
        "s"
      ],
      [
        "Ġm",
        "arr"
      ],
      [
        "al",
        "d"
      ],
      [
        "Ġl",
        "and"
      ],
      [
        "Ġre",
        "st"
      ],
      [
        "Ġwe",
        "e"
      ],
      [
        "Ġtr",
        "y"
      ],
      [
        "Ġab",
        "ort"
      ],
      [
        "Ġv",
        "ict"
      ],
      [
        "wh",
        "y"
      ],
      [
        "Ġsay",
        "ing"
      ],
      [
        "Ġpl",
        "an"
      ],
      [
        "Ġblack",
        "s"
      ],
      [
        "Ġhim",
        "self"
      ],
      [
        "Ġfa",
        "il"
      ],
      [
        "con",
        "d"
      ],
      [
        "Ġpolit",
        "ical"
      ],
      [
        "Ġjew",
        "ish"
      ],
      [
        "Ġple",
        "ase"
      ],
      [
        "Ġunt",
        "il"
      ],
      [
        "b",
        "y"
      ],
      [
        "e",
        "ad"
      ],
      [
        "m",
        "m"
      ],
      [
        "r",
        "upt"
      ],
      [
        "Ġ",
        "6"
      ],
      [
        "Ġ",
        "âĢľ"
      ],
      [
        "Ġa",
        "uth"
      ],
      [
        "Ġw",
        "estern"
      ],
      [
        "Ġs",
        "ou"
      ],
      [
        "Ġc",
        "ase"
      ],
      [
        "ou",
        "se"
      ],
      [
        "Ġp",
        "ast"
      ],
      [
        "Ġm",
        "ind"
      ],
      [
        "Ġm",
        "aking"
      ],
      [
        "Ġan",
        "s"
      ],
      [
        "Ġh",
        "at"
      ],
      [
        "Ġh",
        "illary"
      ],
      [
        "Ġd",
        "est"
      ],
      [
        "Ġst",
        "re"
      ],
      [
        "Ġj",
        "o"
      ],
      [
        "the",
        "y"
      ],
      [
        "Ġli",
        "ves"
      ],
      [
        "Ġse",
        "lf"
      ],
      [
        "Ġsay",
        "s"
      ],
      [
        "Ġact",
        "ually"
      ],
      [
        "Ġgu",
        "ess"
      ],
      [
        "Ġbet",
        "ween"
      ],
      [
        "Ġspe",
        "c"
      ],
      [
        "Ġmay",
        "be"
      ],
      [
        "Ġrepublic",
        "ans"
      ],
      [
        "Ġop",
        "en"
      ],
      [
        "ert",
        "ain"
      ],
      [
        "Ġexam",
        "ple"
      ],
      [
        "Ġallow",
        "ed"
      ],
      [
        "'",
        "ll"
      ],
      [
        ",",
        "\""
      ],
      [
        "d",
        "o"
      ],
      [
        "l",
        "ine"
      ],
      [
        "y",
        "n"
      ],
      [
        "in",
        "s"
      ],
      [
        "Ġc",
        "e"
      ],
      [
        "Ġc",
        "it"
      ],
      [
        "Ġm",
        "ass"
      ],
      [
        "Ġh",
        "ope"
      ],
      [
        "Ġh",
        "yp"
      ],
      [
        "ar",
        "ch"
      ],
      [
        "ic",
        "es"
      ],
      [
        "Ġg",
        "ive"
      ],
      [
        "ion",
        "al"
      ],
      [
        "Ġre",
        "t"
      ],
      [
        "Ġre",
        "qu"
      ],
      [
        "Ġr",
        "ad"
      ],
      [
        "Ġch",
        "o"
      ],
      [
        "Ġcon",
        "c"
      ],
      [
        "Ġde",
        "ad"
      ],
      [
        "Ġne",
        "xt"
      ],
      [
        "if",
        "e"
      ],
      [
        "Ġag",
        "ree"
      ],
      [
        "Ġchrist",
        "ians"
      ],
      [
        "Ġser",
        "ious"
      ],
      [
        "Ġcons",
        "erv"
      ],
      [
        "Ġsoci",
        "al"
      ],
      [
        "Ġiss",
        "ues"
      ],
      [
        "Ġprot",
        "est"
      ],
      [
        "Ġgrou",
        "ps"
      ],
      [
        "Ġseem",
        "s"
      ],
      [
        "whe",
        "re"
      ],
      [
        "Ġext",
        "rem"
      ],
      [
        "Ġfol",
        "ks"
      ],
      [
        "Ġdest",
        "r"
      ],
      [
        ")",
        ","
      ],
      [
        "o",
        "ok"
      ],
      [
        "t",
        "ed"
      ],
      [
        "Ġt",
        "reat"
      ],
      [
        "re",
        "ed"
      ],
      [
        "Ġs",
        "k"
      ],
      [
        "Ġs",
        "ol"
      ],
      [
        "Ġp",
        "oss"
      ],
      [
        "Ġf",
        "ound"
      ],
      [
        "Ġd",
        "en"
      ],
      [
        "ur",
        "ing"
      ],
      [
        "Ġse",
        "cond"
      ],
      [
        "ht",
        "t"
      ],
      [
        "Ġsh",
        "oot"
      ],
      [
        "Ġle",
        "ar"
      ],
      [
        "Ġle",
        "ast"
      ],
      [
        "end",
        "ing"
      ],
      [
        "Ġag",
        "o"
      ],
      [
        "Ġcl",
        "ass"
      ],
      [
        "Ġar",
        "g"
      ],
      [
        "Ġsup",
        "p"
      ],
      [
        "pl",
        "oy"
      ],
      [
        "Ġneed",
        "s"
      ],
      [
        "Ġpo",
        "or"
      ],
      [
        "Ġter",
        "m"
      ],
      [
        "con",
        "om"
      ],
      [
        "Ġent",
        "ire"
      ],
      [
        "Ġbeh",
        "ind"
      ],
      [
        "Ġquest",
        "ion"
      ],
      [
        "Ġil",
        "leg"
      ],
      [
        "Ġcit",
        "iz"
      ],
      [
        "c",
        "ess"
      ],
      [
        "i",
        "as"
      ],
      [
        "i",
        "vers"
      ],
      [
        "n",
        "er"
      ],
      [
        "x",
        "ual"
      ],
      [
        "is",
        "ion"
      ],
      [
        "Ġb",
        "it"
      ],
      [
        "Ġb",
        "ish"
      ],
      [
        "Ġh",
        "ar"
      ],
      [
        "Ġin",
        "ter"
      ],
      [
        "Ġg",
        "iven"
      ],
      [
        "ent",
        "ly"
      ],
      [
        "et",
        "er"
      ],
      [
        "ist",
        "r"
      ],
      [
        "Ġcon",
        "f"
      ],
      [
        "Ġde",
        "ath"
      ],
      [
        "ren",
        "ce"
      ],
      [
        "Ġres",
        "ult"
      ],
      [
        "Ġevery",
        "thing"
      ],
      [
        "Ġoff",
        "ice"
      ],
      [
        "Ġcor",
        "rect"
      ],
      [
        "ra",
        "el"
      ],
      [
        "Ġfriend",
        "s"
      ],
      [
        "Ġpret",
        "ty"
      ],
      [
        "Ġfed",
        "eral"
      ],
      [
        "Ġalask",
        "a"
      ],
      [
        "Ġhyp",
        "ocr"
      ],
      [
        "a",
        "u"
      ],
      [
        "a",
        "ff"
      ],
      [
        "e",
        "ver"
      ],
      [
        "g",
        "er"
      ],
      [
        "j",
        "ust"
      ],
      [
        "l",
        "and"
      ],
      [
        "m",
        "it"
      ],
      [
        "p",
        "h"
      ],
      [
        "w",
        "er"
      ],
      [
        "in",
        "ed"
      ],
      [
        "Ġw",
        "ish"
      ],
      [
        "an",
        "e"
      ],
      [
        "an",
        "k"
      ],
      [
        "Ġp",
        "red"
      ],
      [
        "as",
        "h"
      ],
      [
        "Ġl",
        "ar"
      ],
      [
        "Ġis",
        "rael"
      ],
      [
        "oun",
        "t"
      ],
      [
        "Ġle",
        "vel"
      ],
      [
        "res",
        "ent"
      ],
      [
        "Ġdis",
        "crimin"
      ],
      [
        "iz",
        "ation"
      ],
      [
        "Ġpol",
        "ic"
      ],
      [
        "Ġdr",
        "ug"
      ],
      [
        "Ġem",
        "ploy"
      ],
      [
        "Ġind",
        "ivid"
      ],
      [
        "Ġtalk",
        "ing"
      ],
      [
        "Ġislam",
        "ic"
      ],
      [
        "Ġgen",
        "er"
      ],
      [
        "Ġdemocrat",
        "s"
      ],
      [
        "Ġpop",
        "ul"
      ],
      [
        "Ġmaj",
        "ority"
      ],
      [
        "Ġexper",
        "i"
      ],
      [
        "Ġvict",
        "im"
      ],
      [
        "Ġindivid",
        "ual"
      ],
      [
        "c",
        "o"
      ],
      [
        "g",
        "o"
      ],
      [
        "s",
        "h"
      ],
      [
        "Ġ",
        "9"
      ],
      [
        "Ġ",
        "es"
      ],
      [
        "Ġw",
        "in"
      ],
      [
        "Ġs",
        "et"
      ],
      [
        "Ġs",
        "ad"
      ],
      [
        "Ġs",
        "ign"
      ],
      [
        "is",
        "hed"
      ],
      [
        "Ġc",
        "ertain"
      ],
      [
        "Ġb",
        "re"
      ],
      [
        "Ġp",
        "ass"
      ],
      [
        "Ġm",
        "akes"
      ],
      [
        "Ġf",
        "in"
      ],
      [
        "es",
        "e"
      ],
      [
        "Ġl",
        "a"
      ],
      [
        "Ġl",
        "ow"
      ],
      [
        "Ġl",
        "im"
      ],
      [
        "Ġl",
        "ost"
      ],
      [
        "Ġbe",
        "come"
      ],
      [
        "Ġe",
        "conom"
      ],
      [
        "Ġr",
        "ate"
      ],
      [
        "Ġr",
        "ap"
      ],
      [
        "id",
        "ence"
      ],
      [
        "ist",
        "ic"
      ],
      [
        "il",
        "t"
      ],
      [
        "Ġab",
        "s"
      ],
      [
        "Ġwho",
        "le"
      ],
      [
        "Ġme",
        "ans"
      ],
      [
        "Ġknow",
        "n"
      ],
      [
        "Ġcr",
        "imin"
      ],
      [
        "Ġrac",
        "e"
      ],
      [
        "Ġspe",
        "ak"
      ],
      [
        "Ġfa",
        "ith"
      ],
      [
        "Ġprob",
        "ably"
      ],
      [
        "Ġelect",
        "ed"
      ],
      [
        "Ġkill",
        "ed"
      ],
      [
        "Ġwon",
        "der"
      ],
      [
        "Ġrepublic",
        "an"
      ],
      [
        "Ġgl",
        "ob"
      ],
      [
        "a",
        "i"
      ],
      [
        "i",
        "ate"
      ],
      [
        "m",
        "ed"
      ],
      [
        "u",
        "b"
      ],
      [
        "u",
        "ation"
      ],
      [
        "is",
        "on"
      ],
      [
        "Ġc",
        "and"
      ],
      [
        "Ġc",
        "ame"
      ],
      [
        "on",
        "y"
      ],
      [
        "an",
        "c"
      ],
      [
        "Ġm",
        "o"
      ],
      [
        "Ġm",
        "r"
      ],
      [
        "Ġm",
        "iddle"
      ],
      [
        "Ġf",
        "ear"
      ],
      [
        "Ġf",
        "ull"
      ],
      [
        "Ġf",
        "oll"
      ],
      [
        "Ġth",
        "ough"
      ],
      [
        "Ġd",
        "ou"
      ],
      [
        "ar",
        "ing"
      ],
      [
        "Ġl",
        "at"
      ],
      [
        "ent",
        "ion"
      ],
      [
        "id",
        "es"
      ],
      [
        "Ġst",
        "at"
      ],
      [
        "op",
        "h"
      ],
      [
        "ur",
        "y"
      ],
      [
        "iv",
        "ing"
      ],
      [
        "ia",
        "ge"
      ],
      [
        "Ġcr",
        "it"
      ],
      [
        "Ġcour",
        "t"
      ],
      [
        "Ġcor",
        "rupt"
      ],
      [
        "Ġguy",
        "s"
      ],
      [
        "Ġinst",
        "ead"
      ],
      [
        "Ġop",
        "in"
      ],
      [
        "Ġjew",
        "s"
      ],
      [
        "Ġimmigr",
        "ation"
      ],
      [
        "Ġid",
        "iot"
      ],
      [
        "Ġinclud",
        "ing"
      ],
      [
        "Ġinvest",
        "ig"
      ],
      [
        "Ġpri",
        "est"
      ],
      [
        "Ġcand",
        "id"
      ],
      [
        "a",
        "ult"
      ],
      [
        "f",
        "fect"
      ],
      [
        "g",
        "ust"
      ],
      [
        "g",
        "ress"
      ],
      [
        "i",
        "ver"
      ],
      [
        "n",
        "y"
      ],
      [
        "r",
        "ight"
      ],
      [
        "u",
        "ge"
      ],
      [
        "y",
        "es"
      ],
      [
        "Ġ",
        "z"
      ],
      [
        "Ġs",
        "ing"
      ],
      [
        "at",
        "or"
      ],
      [
        "on",
        "t"
      ],
      [
        "Ġm",
        "et"
      ],
      [
        "or",
        "k"
      ],
      [
        "or",
        "ry"
      ],
      [
        "Ġf",
        "ather"
      ],
      [
        "Ġto",
        "t"
      ],
      [
        "Ġd",
        "iv"
      ],
      [
        "le",
        "t"
      ],
      [
        "Ġg",
        "ender"
      ],
      [
        "Ġe",
        "ach"
      ],
      [
        "Ġr",
        "uss"
      ],
      [
        "Ġhe",
        "ll"
      ],
      [
        "un",
        "d"
      ],
      [
        "um",
        "ent"
      ],
      [
        "Ġse",
        "c"
      ],
      [
        "Ġse",
        "en"
      ],
      [
        "Ġal",
        "read"
      ],
      [
        "Ġwhe",
        "ther"
      ],
      [
        "ak",
        "en"
      ],
      [
        "ose",
        "xual"
      ],
      [
        "ag",
        "ed"
      ],
      [
        "ib",
        "ility"
      ],
      [
        "ci",
        "al"
      ],
      [
        "ound",
        "s"
      ],
      [
        "Ġvot",
        "ers"
      ],
      [
        "Ġcanad",
        "ian"
      ],
      [
        "Ġcons",
        "id"
      ],
      [
        "Ġkill",
        "ing"
      ],
      [
        "itt",
        "ed"
      ],
      [
        "Ġrelig",
        "ious"
      ],
      [
        "Ġro",
        "om"
      ],
      [
        "Ġide",
        "a"
      ],
      [
        "Ġviol",
        "ence"
      ],
      [
        "Ġprog",
        "ram"
      ],
      [
        "Ġabort",
        "ion"
      ],
      [
        "Ġdestr",
        "oy"
      ],
      [
        "Ġalread",
        "y"
      ],
      [
        "2",
        "01"
      ],
      [
        "a",
        "red"
      ],
      [
        "i",
        "o"
      ],
      [
        "l",
        "er"
      ],
      [
        "l",
        "ing"
      ],
      [
        "m",
        "ore"
      ],
      [
        "n",
        "oc"
      ],
      [
        "o",
        "o"
      ],
      [
        "u",
        "res"
      ],
      [
        "Ġ",
        ","
      ],
      [
        "Ġs",
        "w"
      ],
      [
        "Ġp",
        "ick"
      ],
      [
        "Ġm",
        "il"
      ],
      [
        "Ġf",
        "ace"
      ],
      [
        "Ġh",
        "ouse"
      ],
      [
        "Ġth",
        "reat"
      ],
      [
        "Ġd",
        "a"
      ],
      [
        "Ġd",
        "am"
      ],
      [
        "al",
        "ity"
      ],
      [
        "Ġin",
        "de"
      ],
      [
        "Ġn",
        "at"
      ],
      [
        "Ġn",
        "az"
      ],
      [
        "Ġre",
        "ce"
      ],
      [
        "Ġr",
        "ul"
      ],
      [
        "Ġr",
        "ather"
      ],
      [
        "Ġon",
        "es"
      ],
      [
        "un",
        "k"
      ],
      [
        "Ġwas",
        "n"
      ],
      [
        "Ġne",
        "igh"
      ],
      [
        "Ġex",
        "act"
      ],
      [
        "if",
        "ied"
      ],
      [
        "Ġsu",
        "g"
      ],
      [
        "Ġus",
        "ing"
      ],
      [
        "Ġ2",
        "0"
      ],
      [
        "Ġac",
        "cept"
      ],
      [
        "Ġstate",
        "ment"
      ],
      [
        "Ġpolit",
        "ic"
      ],
      [
        "Ġinv",
        "ol"
      ],
      [
        "Ġcomp",
        "an"
      ],
      [
        "Ġproblem",
        "s"
      ],
      [
        "Ġment",
        "ion"
      ],
      [
        "Ġresp",
        "ons"
      ],
      [
        "Ġsur",
        "pr"
      ],
      [
        "Ġfoll",
        "ow"
      ],
      [
        "Ġneigh",
        "b"
      ],
      [
        "_",
        "_"
      ],
      [
        "b",
        "le"
      ],
      [
        "f",
        "ully"
      ],
      [
        "Ġs",
        "ent"
      ],
      [
        "at",
        "ors"
      ],
      [
        "Ġc",
        "ap"
      ],
      [
        "Ġb",
        "ar"
      ],
      [
        "Ġb",
        "ir"
      ],
      [
        "or",
        "ies"
      ],
      [
        "Ġf",
        "ire"
      ],
      [
        "Ġh",
        "or"
      ],
      [
        "Ġin",
        "noc"
      ],
      [
        "Ġl",
        "ist"
      ],
      [
        "Ġre",
        "d"
      ],
      [
        "Ġhe",
        "ar"
      ],
      [
        "Ġab",
        "le"
      ],
      [
        "Ġex",
        "plain"
      ],
      [
        "em",
        "ber"
      ],
      [
        "if",
        "y"
      ],
      [
        "qu",
        "e"
      ],
      [
        "Ġget",
        "s"
      ],
      [
        "Ġdis",
        "gust"
      ],
      [
        "ap",
        "s"
      ],
      [
        "Ġim",
        "p"
      ],
      [
        "Ġwant",
        "ed"
      ],
      [
        "we",
        "ll"
      ],
      [
        "Ġpart",
        "ic"
      ],
      [
        "Ġatt",
        "empt"
      ],
      [
        "Ġass",
        "ault"
      ],
      [
        "oh",
        "n"
      ],
      [
        "Ġcol",
        "or"
      ],
      [
        "Ġbo",
        "ok"
      ],
      [
        "Ġid",
        "ent"
      ],
      [
        "pa",
        "ign"
      ],
      [
        "Ġcomplete",
        "ly"
      ],
      [
        "Ġdisc",
        "uss"
      ],
      [
        "Ġwee",
        "k"
      ],
      [
        "Ġrad",
        "ical"
      ],
      [
        "Ġsug",
        "gest"
      ],
      [
        "c",
        "l"
      ],
      [
        "c",
        "an"
      ],
      [
        "d",
        "on"
      ],
      [
        "e",
        "x"
      ],
      [
        "g",
        "an"
      ],
      [
        "g",
        "ed"
      ],
      [
        "Ġ",
        "ve"
      ],
      [
        "Ġt",
        "aking"
      ],
      [
        "Ġs",
        "l"
      ],
      [
        "Ġs",
        "ense"
      ],
      [
        "Ġm",
        "os"
      ],
      [
        "Ġan",
        "g"
      ],
      [
        "Ġto",
        "p"
      ],
      [
        "Ġto",
        "ld"
      ],
      [
        "Ġl",
        "os"
      ],
      [
        "Ġl",
        "ine"
      ],
      [
        "..",
        "..."
      ],
      [
        "am",
        "es"
      ],
      [
        "un",
        "ch"
      ],
      [
        "Ġwith",
        "in"
      ],
      [
        "Ġcon",
        "v"
      ],
      [
        "Ġde",
        "p"
      ],
      [
        "il",
        "ar"
      ],
      [
        "Ġcom",
        "ing"
      ],
      [
        "Ġcom",
        "es"
      ],
      [
        "iv",
        "ed"
      ],
      [
        "Ġex",
        "pect"
      ],
      [
        "Ġex",
        "cept"
      ],
      [
        "Ġdon",
        "ald"
      ],
      [
        "ag",
        "es"
      ],
      [
        "Ġev",
        "idence"
      ],
      [
        "Ġim",
        "port"
      ],
      [
        "....",
        "...."
      ],
      [
        "Ġ2",
        "01"
      ],
      [
        "Ġrep",
        "resent"
      ],
      [
        "Ġapp",
        "ro"
      ],
      [
        "Ġreal",
        "ity"
      ],
      [
        "!!",
        "!"
      ],
      [
        "Ġfam",
        "il"
      ],
      [
        "olog",
        "y"
      ],
      [
        "Ġprop",
        "er"
      ],
      [
        "Ġmon",
        "th"
      ],
      [
        "Ġconst",
        "itution"
      ],
      [
        "Ġcam",
        "paign"
      ],
      [
        "Ġgirl",
        "s"
      ],
      [
        "Ġeduc",
        "ation"
      ],
      [
        "Ġmarr",
        "iage"
      ],
      [
        "Ġret",
        "urn"
      ],
      [
        "Ġpopul",
        "ation"
      ],
      [
        "b",
        "s"
      ],
      [
        "b",
        "ody"
      ],
      [
        "h",
        "aps"
      ],
      [
        "i",
        "k"
      ],
      [
        "i",
        "ent"
      ],
      [
        "n",
        "on"
      ],
      [
        "Ġt",
        "est"
      ],
      [
        "Ġt",
        "yp"
      ],
      [
        "Ġa",
        "ge"
      ],
      [
        "in",
        "al"
      ],
      [
        "Ġs",
        "la"
      ],
      [
        "Ġc",
        "re"
      ],
      [
        "Ġb",
        "est"
      ],
      [
        "Ġb",
        "ene"
      ],
      [
        "on",
        "se"
      ],
      [
        "Ġm",
        "ult"
      ],
      [
        "Ġf",
        "our"
      ],
      [
        "Ġh",
        "ig"
      ],
      [
        "Ġto",
        "ok"
      ],
      [
        "Ġof",
        "ten"
      ],
      [
        "ic",
        "ul"
      ],
      [
        "as",
        "c"
      ],
      [
        "Ġg",
        "op"
      ],
      [
        "Ġe",
        "th"
      ],
      [
        "Ġe",
        "ffect"
      ],
      [
        "Ġwh",
        "ites"
      ],
      [
        "Ġr",
        "ich"
      ],
      [
        "Ġpr",
        "im"
      ],
      [
        "Ġpr",
        "oc"
      ],
      [
        "Ġde",
        "l"
      ],
      [
        "Ġv",
        "is"
      ],
      [
        "Ġun",
        "ited"
      ],
      [
        "ard",
        "s"
      ],
      [
        "ib",
        "ly"
      ],
      [
        "ci",
        "ally"
      ],
      [
        "Ġthink",
        "ing"
      ],
      [
        "Ġ1",
        "0"
      ],
      [
        "Ġcatholic",
        "s"
      ],
      [
        "Ġbelie",
        "f"
      ],
      [
        "Ġlook",
        "ing"
      ],
      [
        "Ġrem",
        "ember"
      ],
      [
        "--",
        "-"
      ],
      [
        "Ġmill",
        "ions"
      ],
      [
        "Ġimmigr",
        "ants"
      ],
      [
        "Ġterror",
        "ist"
      ],
      [
        "ww",
        "w"
      ],
      [
        "Ġmem",
        "bers"
      ],
      [
        "erg",
        "y"
      ],
      [
        "Ġfore",
        "ign"
      ],
      [
        "Ġchin",
        "a"
      ],
      [
        "Ġprof",
        "ess"
      ],
      [
        "Ġsit",
        "uation"
      ],
      [
        "Ġans",
        "wer"
      ],
      [
        "Ġilleg",
        "al"
      ],
      [
        "Ġcitiz",
        "ens"
      ],
      [
        "Ġsing",
        "le"
      ],
      [
        "Ġdisgust",
        "ing"
      ],
      [
        "5",
        "0"
      ],
      [
        "e",
        "e"
      ],
      [
        "g",
        "ing"
      ],
      [
        "p",
        "ar"
      ],
      [
        "t",
        "t"
      ],
      [
        "u",
        "ff"
      ],
      [
        "Ġt",
        "aken"
      ],
      [
        "Ġa",
        "v"
      ],
      [
        "Ġw",
        "ent"
      ],
      [
        "Ġs",
        "en"
      ],
      [
        "Ġs",
        "ac"
      ],
      [
        "Ġs",
        "ci"
      ],
      [
        "Ġo",
        "k"
      ],
      [
        "at",
        "ic"
      ],
      [
        "Ġc",
        "ut"
      ],
      [
        "it",
        "er"
      ],
      [
        "Ġp",
        "ur"
      ],
      [
        "Ġm",
        "ist"
      ],
      [
        "Ġan",
        "im"
      ],
      [
        "Ġf",
        "ut"
      ],
      [
        "Ġh",
        "o"
      ],
      [
        "Ġh",
        "ur"
      ],
      [
        "Ġn",
        "ative"
      ],
      [
        "as",
        "es"
      ],
      [
        "ac",
        "es"
      ],
      [
        "Ġon",
        "ce"
      ],
      [
        "ir",
        "d"
      ],
      [
        "Ġj",
        "ohn"
      ],
      [
        "ation",
        "al"
      ],
      [
        "Ġwor",
        "ds"
      ],
      [
        "pe",
        "cially"
      ],
      [
        "oc",
        "al"
      ],
      [
        "ive",
        "ly"
      ],
      [
        "Ġsu",
        "ff"
      ],
      [
        "ĠĠ",
        "ĠĠ"
      ],
      [
        "Ġbl",
        "ame"
      ],
      [
        "Ġhow",
        "ever"
      ],
      [
        "Ġev",
        "ent"
      ],
      [
        "Ġen",
        "c"
      ],
      [
        "Ġact",
        "iv"
      ],
      [
        "Ġqu",
        "ite"
      ],
      [
        "Ġwork",
        "ing"
      ],
      [
        "Ġwork",
        "ed"
      ],
      [
        "Ġway",
        "s"
      ],
      [
        "Ġspe",
        "e"
      ],
      [
        "Ġsupport",
        "ers"
      ],
      [
        "Ġpa",
        "id"
      ],
      [
        "Ġign",
        "ore"
      ],
      [
        "Ġschool",
        "s"
      ],
      [
        "Ġdemocrat",
        "ic"
      ],
      [
        "Ġmur",
        "der"
      ],
      [
        "Ġsupremac",
        "ists"
      ],
      [
        "Ġignor",
        "ant"
      ],
      [
        "Ġboy",
        "s"
      ],
      [
        "Ġclear",
        "ly"
      ],
      [
        "ude",
        "au"
      ],
      [
        "Ġhat",
        "red"
      ],
      [
        "ivers",
        "ity"
      ],
      [
        "Ġexperi",
        "ence"
      ],
      [
        "Ġconsid",
        "er"
      ],
      [
        "Ġmil",
        "it"
      ],
      [
        "Ġfamil",
        "ies"
      ],
      [
        "Ġbene",
        "f"
      ],
      [
        "icul",
        "ous"
      ],
      [
        "Ġfut",
        "ure"
      ],
      [
        "'",
        "."
      ],
      [
        "2",
        "0"
      ],
      [
        "a",
        "ir"
      ],
      [
        "b",
        "c"
      ],
      [
        "c",
        "ent"
      ],
      [
        "f",
        "er"
      ],
      [
        "m",
        "ay"
      ],
      [
        "v",
        "iew"
      ],
      [
        "Ġ",
        "7"
      ],
      [
        "Ġ",
        "8"
      ],
      [
        "Ġ",
        "est"
      ],
      [
        "re",
        "g"
      ],
      [
        "Ġw",
        "alk"
      ],
      [
        "Ġs",
        "ick"
      ],
      [
        "Ġc",
        "ou"
      ],
      [
        "en",
        "ing"
      ],
      [
        "Ġm",
        "s"
      ],
      [
        "Ġm",
        "od"
      ],
      [
        "Ġf",
        "all"
      ],
      [
        "al",
        "f"
      ],
      [
        "Ġin",
        "form"
      ],
      [
        "Ġbe",
        "g"
      ],
      [
        "Ġe",
        "ur"
      ],
      [
        "Ġst",
        "ay"
      ],
      [
        "ol",
        "ute"
      ],
      [
        "ist",
        "er"
      ],
      [
        "Ġpr",
        "od"
      ],
      [
        "Ġdo",
        "g"
      ],
      [
        "Ġch",
        "ang"
      ],
      [
        "ate",
        "ly"
      ],
      [
        "Ġde",
        "b"
      ],
      [
        "Ġgo",
        "es"
      ],
      [
        "Ġor",
        "der"
      ],
      [
        "Ġab",
        "ove"
      ],
      [
        "Ġsh",
        "ort"
      ],
      [
        "Ġex",
        "ist"
      ],
      [
        "Ġal",
        "most"
      ],
      [
        "Ġun",
        "f"
      ],
      [
        "Ġyour",
        "self"
      ],
      [
        "ort",
        "un"
      ],
      [
        "Ġcr",
        "ime"
      ],
      [
        "Ġinc",
        "re"
      ],
      [
        "Ġbr",
        "ing"
      ],
      [
        "Ġfa",
        "ir"
      ],
      [
        "Ġcomm",
        "on"
      ],
      [
        "Ġacc",
        "om"
      ],
      [
        "Ġpa",
        "rent"
      ],
      [
        "uct",
        "ion"
      ],
      [
        "Ġche",
        "ck"
      ],
      [
        "Ġfun",
        "d"
      ],
      [
        "Ġresp",
        "onse"
      ],
      [
        "Ġleg",
        "al"
      ],
      [
        "Ġhappen",
        "ed"
      ],
      [
        "ward",
        "s"
      ],
      [
        "Ġsupremac",
        "ist"
      ],
      [
        "Ġnum",
        "ber"
      ],
      [
        "Ġstud",
        "ents"
      ],
      [
        "Ġpos",
        "ition"
      ],
      [
        "Ġrid",
        "iculous"
      ],
      [
        "Ġsk",
        "in"
      ],
      [
        "Ġbish",
        "ops"
      ],
      [
        "Ġdou",
        "bt"
      ],
      [
        "Ġpolitic",
        "ians"
      ],
      [
        "Ġinnoc",
        "ent"
      ],
      [
        "Ġmult",
        "i"
      ],
      [
        "Ġhig",
        "her"
      ],
      [
        "may",
        "be"
      ],
      [
        "Ġeur",
        "ope"
      ],
      [
        ".",
        ")"
      ],
      [
        "c",
        "ut"
      ],
      [
        "g",
        "es"
      ],
      [
        "t",
        "a"
      ],
      [
        "t",
        "ers"
      ],
      [
        "y",
        "our"
      ],
      [
        "Ġw",
        "all"
      ],
      [
        "is",
        "ing"
      ],
      [
        "Ġb",
        "ur"
      ],
      [
        "Ġb",
        "ias"
      ],
      [
        "Ġp",
        "ope"
      ],
      [
        "Ġm",
        "ess"
      ],
      [
        "Ġm",
        "ag"
      ],
      [
        "Ġm",
        "ove"
      ],
      [
        "Ġf",
        "ight"
      ],
      [
        "Ġf",
        "ool"
      ],
      [
        "Ġh",
        "old"
      ],
      [
        "Ġth",
        "ree"
      ],
      [
        "Ġd",
        "om"
      ],
      [
        "ar",
        "k"
      ],
      [
        "us",
        "ion"
      ],
      [
        "Ġe",
        "ast"
      ],
      [
        "Ġre",
        "pl"
      ],
      [
        "Ġst",
        "e"
      ],
      [
        "Ġli",
        "ving"
      ],
      [
        "Ġcon",
        "gress"
      ],
      [
        "and",
        "s"
      ],
      [
        "Ġun",
        "less"
      ],
      [
        "Ġwor",
        "d"
      ],
      [
        "Ġwould",
        "n"
      ],
      [
        "Ġme",
        "et"
      ],
      [
        "Ġjust",
        "ice"
      ],
      [
        "Ġam",
        "ong"
      ],
      [
        "Ġknow",
        "s"
      ],
      [
        "act",
        "ion"
      ],
      [
        "Ġthan",
        "ks"
      ],
      [
        "wh",
        "o"
      ],
      [
        "pl",
        "es"
      ],
      [
        "Ġad",
        "min"
      ],
      [
        "Ġact",
        "s"
      ],
      [
        "Ġsp",
        "ir"
      ],
      [
        "Ġpre",
        "v"
      ],
      [
        "Ġwr",
        "ote"
      ],
      [
        "Ġbr",
        "ain"
      ],
      [
        "ire",
        "ct"
      ],
      [
        "Ġrem",
        "o"
      ],
      [
        "ang",
        "er"
      ],
      [
        "Ġcle",
        "an"
      ],
      [
        "Ġsim",
        "ilar"
      ],
      [
        "Ġday",
        "s"
      ],
      [
        "Ġgen",
        "eral"
      ],
      [
        "Ġliber",
        "als"
      ],
      [
        "Ġdiffe",
        "rence"
      ],
      [
        "Ġchristian",
        "ity"
      ],
      [
        "Ġinterest",
        "ed"
      ],
      [
        "li",
        "ke"
      ],
      [
        "Ġmis",
        "og"
      ],
      [
        "Ġwat",
        "ch"
      ],
      [
        "Ġpriv",
        "ate"
      ],
      [
        "Ġkid",
        "s"
      ],
      [
        "Ġobvious",
        "ly"
      ],
      [
        "Ġspec",
        "ul"
      ],
      [
        "Ġsupp",
        "osed"
      ],
      [
        "Ġcertain",
        "ly"
      ],
      [
        "Ġcandid",
        "ate"
      ],
      [
        "Ġspee",
        "ch"
      ],
      [
        "olute",
        "ly"
      ],
      [
        "h",
        "ood"
      ],
      [
        "i",
        "or"
      ],
      [
        "n",
        "a"
      ],
      [
        "n",
        "ew"
      ],
      [
        "t",
        "on"
      ],
      [
        "t",
        "ar"
      ],
      [
        "u",
        "red"
      ],
      [
        "Ġ",
        "ur"
      ],
      [
        "Ġt",
        "en"
      ],
      [
        "Ġt",
        "we"
      ],
      [
        "he",
        "n"
      ],
      [
        "Ġw",
        "ing"
      ],
      [
        "Ġs",
        "on"
      ],
      [
        "Ġs",
        "us"
      ],
      [
        "at",
        "s"
      ],
      [
        "Ġb",
        "ud"
      ],
      [
        "Ġb",
        "urn"
      ],
      [
        "an",
        "ks"
      ],
      [
        "Ġp",
        "ie"
      ],
      [
        "Ġh",
        "y"
      ],
      [
        "Ġto",
        "get"
      ],
      [
        "Ġd",
        "et"
      ],
      [
        "Ġd",
        "ue"
      ],
      [
        "Ġn",
        "ations"
      ],
      [
        "ar",
        "c"
      ],
      [
        "Ġl",
        "ower"
      ],
      [
        "ll",
        "ig"
      ],
      [
        "us",
        "ing"
      ],
      [
        "Ġe",
        "ff"
      ],
      [
        "Ġr",
        "u"
      ],
      [
        "Ġr",
        "is"
      ],
      [
        "Ġfor",
        "ce"
      ],
      [
        "st",
        "r"
      ],
      [
        "Ġha",
        "w"
      ],
      [
        "Ġst",
        "ep"
      ],
      [
        "Ġst",
        "ories"
      ],
      [
        "ill",
        "y"
      ],
      [
        "ir",
        "on"
      ],
      [
        "Ġpr",
        "ay"
      ],
      [
        "Ġpr",
        "act"
      ],
      [
        "Ġpr",
        "ison"
      ],
      [
        "Ġtr",
        "udeau"
      ],
      [
        "um",
        "e"
      ],
      [
        "Ġcon",
        "cept"
      ],
      [
        "Ġor",
        "ig"
      ],
      [
        "Ġsh",
        "ot"
      ],
      [
        "ag",
        "ing"
      ],
      [
        "Ġgr",
        "and"
      ],
      [
        "Ġrac",
        "ial"
      ],
      [
        "Ġper",
        "haps"
      ],
      [
        "de",
        "red"
      ],
      [
        "Ġbu",
        "y"
      ],
      [
        "Ġacc",
        "ount"
      ],
      [
        "Ġtax",
        "es"
      ],
      [
        "Ġdef",
        "in"
      ],
      [
        "Ġtell",
        "ing"
      ],
      [
        "ro",
        "om"
      ],
      [
        "Ġmar",
        "k"
      ],
      [
        "Ġsm",
        "all"
      ],
      [
        "Ġhom",
        "osexual"
      ],
      [
        "Ġear",
        "th"
      ],
      [
        "Ġhon",
        "est"
      ],
      [
        "Ġnum",
        "bers"
      ],
      [
        "Ġignor",
        "ance"
      ],
      [
        "Ġcommun",
        "ity"
      ],
      [
        "reed",
        "om"
      ],
      [
        "istr",
        "ation"
      ],
      [
        "Ġcrimin",
        "al"
      ],
      [
        "Ġexact",
        "ly"
      ],
      [
        "Ġinvol",
        "ved"
      ],
      [
        "Ġbir",
        "th"
      ],
      [
        "Ġimport",
        "ant"
      ],
      [
        "Ġspir",
        "it"
      ],
      [
        "Ġmisog",
        "yn"
      ],
      [
        "Ġtoget",
        "her"
      ],
      [
        "c",
        "hes"
      ],
      [
        "d",
        "r"
      ],
      [
        "d",
        "ers"
      ],
      [
        "i",
        "ke"
      ],
      [
        "m",
        "y"
      ],
      [
        "o",
        "id"
      ],
      [
        "o",
        "int"
      ],
      [
        "p",
        "re"
      ],
      [
        "r",
        "ible"
      ],
      [
        "s",
        "he"
      ],
      [
        "w",
        "as"
      ],
      [
        "x",
        "ic"
      ],
      [
        "Ċ",
        "Ċ"
      ],
      [
        "Ġa",
        "w"
      ],
      [
        "Ġw",
        "ife"
      ],
      [
        "Ġc",
        "ust"
      ],
      [
        "Ġp",
        "us"
      ],
      [
        "Ġm",
        "other"
      ],
      [
        "Ġh",
        "un"
      ],
      [
        "Ġh",
        "ous"
      ],
      [
        "Ġth",
        "ous"
      ],
      [
        "Ġd",
        "uring"
      ],
      [
        "Ġin",
        "tern"
      ],
      [
        "le",
        "y"
      ],
      [
        "Ġn",
        "ight"
      ],
      [
        "Ġg",
        "as"
      ],
      [
        "ot",
        "t"
      ],
      [
        "Ġr",
        "ound"
      ],
      [
        "Ġha",
        "ven"
      ],
      [
        "il",
        "ed"
      ],
      [
        "Ġle",
        "ave"
      ],
      [
        "end",
        "ed"
      ],
      [
        "Ġsu",
        "cc"
      ],
      [
        "ie",
        "f"
      ],
      [
        "Ġkn",
        "ew"
      ],
      [
        "Ġus",
        "a"
      ],
      [
        "ca",
        "re"
      ],
      [
        "Ġcl",
        "ose"
      ],
      [
        "Ġdis",
        "ag"
      ],
      [
        "Ġen",
        "v"
      ],
      [
        "Ġad",
        "m"
      ],
      [
        "Ġwant",
        "s"
      ],
      [
        "Ġoff",
        "ic"
      ],
      [
        "Ġ2",
        "00"
      ],
      [
        "Ġob",
        "s"
      ],
      [
        "Ġatt",
        "ention"
      ],
      [
        "Ġfa",
        "v"
      ],
      [
        "Ġperson",
        "al"
      ],
      [
        "Ġrem",
        "ain"
      ],
      [
        "Ġdec",
        "ent"
      ],
      [
        "Ġdec",
        "ision"
      ],
      [
        "itt",
        "en"
      ],
      [
        "Ġfem",
        "in"
      ],
      [
        "Ġrec",
        "ord"
      ],
      [
        "whe",
        "n"
      ],
      [
        "Ġattack",
        "s"
      ],
      [
        "Ġterror",
        "ists"
      ],
      [
        "Ġca",
        "use"
      ],
      [
        "Ġprom",
        "ot"
      ],
      [
        "Ġadd",
        "ress"
      ],
      [
        "Ġcontin",
        "ue"
      ],
      [
        "Ġcontin",
        "ues"
      ],
      [
        "Ġjud",
        "ge"
      ],
      [
        "Ġeas",
        "y"
      ],
      [
        "Ġchin",
        "ese"
      ],
      [
        "Ġadv",
        "oc"
      ],
      [
        "Ġserv",
        "ice"
      ],
      [
        "Ġauth",
        "or"
      ],
      [
        "Ġextrem",
        "ists"
      ],
      [
        "htt",
        "p"
      ],
      [
        "Ġlar",
        "ge"
      ],
      [
        "Ġvictim",
        "s"
      ],
      [
        "Ġes",
        "pecially"
      ],
      [
        "Ġabs",
        "olutely"
      ],
      [
        "Ġmilit",
        "ary"
      ],
      [
        "Ġparent",
        "s"
      ],
      [
        ",",
        "âĢĿ"
      ],
      [
        "a",
        "f"
      ],
      [
        "e",
        "red"
      ],
      [
        "g",
        "y"
      ],
      [
        "h",
        "old"
      ],
      [
        "i",
        "ally"
      ],
      [
        "m",
        "en"
      ],
      [
        "n",
        "n"
      ],
      [
        "o",
        "x"
      ],
      [
        "r",
        "ap"
      ],
      [
        "s",
        "hip"
      ],
      [
        "u",
        "ed"
      ],
      [
        "v",
        "il"
      ],
      [
        "w",
        "ith"
      ],
      [
        "Ġ",
        "er"
      ],
      [
        "Ġ",
        "vers"
      ],
      [
        "Ġt",
        "akes"
      ],
      [
        "Ġs",
        "our"
      ],
      [
        "Ġs",
        "orry"
      ],
      [
        "Ġo",
        "per"
      ],
      [
        "Ġo",
        "cc"
      ],
      [
        "at",
        "t"
      ],
      [
        "Ġc",
        "od"
      ],
      [
        "Ġc",
        "ases"
      ],
      [
        "Ġb",
        "unch"
      ],
      [
        "Ġm",
        "er"
      ],
      [
        "Ġf",
        "ake"
      ],
      [
        "Ġf",
        "reedom"
      ],
      [
        "Ġd",
        "irect"
      ],
      [
        "le",
        "v"
      ],
      [
        "le",
        "br"
      ],
      [
        "Ġg",
        "one"
      ],
      [
        "Ġl",
        "ab"
      ],
      [
        "Ġit",
        "self"
      ],
      [
        "id",
        "ing"
      ],
      [
        "Ġhe",
        "ard"
      ],
      [
        "se",
        "e"
      ],
      [
        "Ġwe",
        "ap"
      ],
      [
        "am",
        "eric"
      ],
      [
        "um",
        "b"
      ],
      [
        "Ġli",
        "k"
      ],
      [
        "Ġli",
        "ar"
      ],
      [
        "Ġli",
        "ved"
      ],
      [
        "th",
        "ood"
      ],
      [
        "Ġor",
        "gan"
      ],
      [
        "ust",
        "r"
      ],
      [
        "Ġne",
        "ar"
      ],
      [
        "Ġne",
        "cess"
      ],
      [
        "Ġv",
        "ar"
      ],
      [
        "Ġfr",
        "ont"
      ],
      [
        "ight",
        "s"
      ],
      [
        "Ġal",
        "c"
      ],
      [
        "ag",
        "ine"
      ],
      [
        "ap",
        "er"
      ],
      [
        "ult",
        "s"
      ],
      [
        "âĢ",
        "Ķ"
      ],
      [
        "Ġ1",
        "00"
      ],
      [
        "el",
        "t"
      ],
      [
        "Ġwr",
        "itten"
      ],
      [
        "ens",
        "ive"
      ],
      [
        "Ġrel",
        "ations"
      ],
      [
        "Ġfa",
        "ult"
      ],
      [
        "for",
        "d"
      ],
      [
        "Ġcanad",
        "ians"
      ],
      [
        "rent",
        "ly"
      ],
      [
        "az",
        "y"
      ],
      [
        "Ġbu",
        "ilt"
      ],
      [
        "Ġinte",
        "llig"
      ],
      [
        "Ġpar",
        "ish"
      ],
      [
        "Ġread",
        "ing"
      ],
      [
        "Ġmar",
        "ch"
      ],
      [
        "Ġhand",
        "s"
      ],
      [
        "Ġjob",
        "s"
      ],
      [
        "Ġrun",
        "ning"
      ],
      [
        "Ġ5",
        "0"
      ],
      [
        "Ġap",
        "pe"
      ],
      [
        "Ġequ",
        "al"
      ],
      [
        "Ġlead",
        "ers"
      ],
      [
        "Ġmem",
        "ber"
      ],
      [
        "Ġexp",
        "ress"
      ],
      [
        "Ġill",
        "ness"
      ],
      [
        "Ġteac",
        "hing"
      ],
      [
        "Ġbuild",
        "ing"
      ],
      [
        "Ġregard",
        "less"
      ],
      [
        "Ġsou",
        "th"
      ],
      [
        "Ġconserv",
        "ative"
      ],
      [
        "Ġconserv",
        "atives"
      ],
      [
        "Ġdiscrimin",
        "ation"
      ],
      [
        "Ġrap",
        "ed"
      ],
      [
        "Ġglob",
        "e"
      ],
      [
        "ai",
        "i"
      ],
      [
        "anc",
        "is"
      ],
      [
        "Ġopin",
        "ion"
      ],
      [
        "Ġpriest",
        "s"
      ],
      [
        "Ġda",
        "ught"
      ],
      [
        "Ġpartic",
        "ular"
      ],
      [
        "Ġbelief",
        "s"
      ],
      [
        "Ġsus",
        "pect"
      ],
      [
        "Ġris",
        "k"
      ],
      [
        "iron",
        "ment"
      ],
      [
        "Ġsucc",
        "ess"
      ],
      [
        "Ġenv",
        "ironment"
      ],
      [
        "\"",
        "?"
      ],
      [
        "?",
        "\""
      ],
      [
        "b",
        "an"
      ],
      [
        "c",
        "all"
      ],
      [
        "d",
        "a"
      ],
      [
        "e",
        "ah"
      ],
      [
        "g",
        "ood"
      ],
      [
        "i",
        "pp"
      ],
      [
        "i",
        "pt"
      ],
      [
        "l",
        "ic"
      ],
      [
        "l",
        "ish"
      ],
      [
        "m",
        "e"
      ],
      [
        "m",
        "ing"
      ],
      [
        "m",
        "al"
      ],
      [
        "p",
        "et"
      ],
      [
        "r",
        "ing"
      ],
      [
        "s",
        "ide"
      ],
      [
        "u",
        "ly"
      ],
      [
        "w",
        "om"
      ],
      [
        "Ġ",
        "["
      ],
      [
        "he",
        "ad"
      ],
      [
        "Ġs",
        "and"
      ],
      [
        "Ġs",
        "illy"
      ],
      [
        "Ġo",
        "h"
      ],
      [
        "is",
        "l"
      ],
      [
        "is",
        "es"
      ],
      [
        "Ġc",
        "ow"
      ],
      [
        "Ġc",
        "red"
      ],
      [
        "Ġb",
        "ase"
      ],
      [
        "Ġb",
        "orn"
      ],
      [
        "ou",
        "ch"
      ],
      [
        "Ġp",
        "en"
      ],
      [
        "Ġm",
        "ot"
      ],
      [
        "Ġm",
        "iss"
      ],
      [
        "Ġm",
        "ales"
      ],
      [
        "Ġf",
        "oc"
      ],
      [
        "Ġf",
        "ix"
      ],
      [
        "Ġf",
        "asc"
      ],
      [
        "Ġh",
        "uge"
      ],
      [
        "Ġto",
        "ler"
      ],
      [
        "Ġd",
        "ress"
      ],
      [
        "Ġn",
        "arr"
      ],
      [
        "as",
        "ed"
      ],
      [
        "Ġl",
        "og"
      ],
      [
        "ot",
        "s"
      ],
      [
        "us",
        "ive"
      ],
      [
        "Ġr",
        "ates"
      ],
      [
        "Ġhe",
        "art"
      ],
      [
        "Ġfor",
        "g"
      ],
      [
        "ur",
        "ity"
      ],
      [
        "Ġwe",
        "l"
      ],
      [
        "Ġwe",
        "ar"
      ],
      [
        "am",
        "ing"
      ],
      [
        "Ġnot",
        "e"
      ],
      [
        "ist",
        "ed"
      ],
      [
        "the",
        "se"
      ],
      [
        "Ġdo",
        "c"
      ],
      [
        "Ġdo",
        "ct"
      ],
      [
        "Ġcon",
        "vers"
      ],
      [
        "Ġde",
        "ep"
      ],
      [
        "Ġcom",
        "pl"
      ],
      [
        "Ġv",
        "s"
      ],
      [
        "Ġsh",
        "ut"
      ],
      [
        "Ġfr",
        "ancis"
      ],
      [
        "ack",
        "s"
      ],
      [
        "ain",
        "ed"
      ],
      [
        "Ġal",
        "ong"
      ],
      [
        "ab",
        "b"
      ],
      [
        "Ġwor",
        "se"
      ],
      [
        "Ġwor",
        "th"
      ],
      [
        "Ġwill",
        "ing"
      ],
      [
        "ob",
        "ody"
      ],
      [
        "Ġam",
        "az"
      ],
      [
        "Ġag",
        "end"
      ],
      [
        "Ġen",
        "ergy"
      ],
      [
        "wh",
        "ile"
      ],
      [
        "Ġact",
        "ual"
      ],
      [
        "Ġsp",
        "end"
      ],
      [
        "Ġaf",
        "ric"
      ],
      [
        "Ġpres",
        "ent"
      ],
      [
        "ug",
        "h"
      ],
      [
        "Ġinc",
        "ome"
      ],
      [
        "ens",
        "ion"
      ],
      [
        "Ġspe",
        "cial"
      ],
      [
        "Ġstate",
        "ments"
      ],
      [
        "Ġcomm",
        "itted"
      ],
      [
        "cr",
        "ipt"
      ],
      [
        "Ġpolit",
        "ics"
      ],
      [
        "Ġlong",
        "er"
      ],
      [
        "Ġdif",
        "f"
      ],
      [
        "Ġhapp",
        "ens"
      ],
      [
        "Ġment",
        "ally"
      ],
      [
        "Ġco",
        "ver"
      ],
      [
        "Ġgay",
        "s"
      ],
      [
        "Ġdes",
        "p"
      ],
      [
        "Ġ19",
        "8"
      ],
      [
        "Ġ4",
        "0"
      ],
      [
        "Ġask",
        "ed"
      ],
      [
        "Ġcond",
        "em"
      ],
      [
        "fr",
        "om"
      ],
      [
        "Ġgrow",
        "ing"
      ],
      [
        "Ġwat",
        "er"
      ],
      [
        "Ġteac",
        "her"
      ],
      [
        "Ġstre",
        "et"
      ],
      [
        "Ġce",
        "lebr"
      ],
      [
        "Ġtreat",
        "ment"
      ],
      [
        "htt",
        "ps"
      ],
      [
        "Ġlear",
        "n"
      ],
      [
        "Ġlim",
        "it"
      ],
      [
        "oph",
        "ob"
      ],
      [
        "Ġinvestig",
        "ation"
      ],
      [
        "Ġnat",
        "ure"
      ],
      [
        "Ġrece",
        "ived"
      ],
      [
        "Ġneighb",
        "or"
      ],
      [
        "Ġproper",
        "ty"
      ],
      [
        "Ġmulti",
        "ple"
      ],
      [
        "Ġadmin",
        "istration"
      ],
      [
        "Ġalc",
        "oh"
      ],
      [
        ".",
        "âĢĿ"
      ],
      [
        "1",
        "0"
      ],
      [
        "a",
        "a"
      ],
      [
        "b",
        "i"
      ],
      [
        "c",
        "er"
      ],
      [
        "c",
        "ing"
      ],
      [
        "c",
        "atholic"
      ],
      [
        "c",
        "hed"
      ],
      [
        "d",
        "d"
      ],
      [
        "g",
        "bt"
      ],
      [
        "k",
        "ing"
      ],
      [
        "l",
        "s"
      ],
      [
        "m",
        "us"
      ],
      [
        "w",
        "ing"
      ],
      [
        "w",
        "ise"
      ],
      [
        "Ġ",
        "ut"
      ],
      [
        "Ġt",
        "ar"
      ],
      [
        "Ġa",
        "ir"
      ],
      [
        "he",
        "re"
      ],
      [
        "he",
        "tic"
      ],
      [
        "re",
        "am"
      ],
      [
        "Ġw",
        "it"
      ],
      [
        "Ġs",
        "n"
      ],
      [
        "Ġs",
        "at"
      ],
      [
        "Ġs",
        "al"
      ],
      [
        "Ġs",
        "ide"
      ],
      [
        "Ġs",
        "ounds"
      ],
      [
        "is",
        "y"
      ],
      [
        "er",
        "y"
      ],
      [
        "Ġb",
        "om"
      ],
      [
        "Ġb",
        "ull"
      ],
      [
        "ou",
        "d"
      ],
      [
        "it",
        "ting"
      ],
      [
        "en",
        "ces"
      ],
      [
        "an",
        "cy"
      ],
      [
        "Ġm",
        "ain"
      ],
      [
        "Ġf",
        "ur"
      ],
      [
        "Ġf",
        "elt"
      ],
      [
        "Ġto",
        "wn"
      ],
      [
        "Ġth",
        "ird"
      ],
      [
        "Ġd",
        "ie"
      ],
      [
        "Ġin",
        "tr"
      ],
      [
        "Ġn",
        "ut"
      ],
      [
        "ic",
        "it"
      ],
      [
        "ic",
        "ult"
      ],
      [
        "ic",
        "ated"
      ],
      [
        "Ġg",
        "ave"
      ],
      [
        "Ġg",
        "iving"
      ],
      [
        "Ġl",
        "ock"
      ],
      [
        "Ġl",
        "ocal"
      ],
      [
        "ac",
        "ter"
      ],
      [
        "ow",
        "s"
      ],
      [
        "Ġst",
        "aff"
      ],
      [
        "Ġtr",
        "a"
      ],
      [
        "Ġtr",
        "ad"
      ],
      [
        "Ġtr",
        "oll"
      ],
      [
        "Ġj",
        "our"
      ],
      [
        "the",
        "n"
      ],
      [
        "Ġli",
        "e"
      ],
      [
        "th",
        "ank"
      ],
      [
        "Ġse",
        "ct"
      ],
      [
        "Ġab",
        "use"
      ],
      [
        "Ġne",
        "g"
      ],
      [
        "Ġwor",
        "ship"
      ],
      [
        "Ġam",
        "end"
      ],
      [
        "Ġthan",
        "k"
      ],
      [
        "iz",
        "ing"
      ],
      [
        "Ġcr",
        "imes"
      ],
      [
        "Ġpl",
        "aces"
      ],
      [
        "Ġoff",
        "er"
      ],
      [
        "Ġpo",
        "ll"
      ],
      [
        "ons",
        "ense"
      ],
      [
        "Ġdem",
        "on"
      ],
      [
        "cr",
        "ib"
      ],
      [
        "Ġfact",
        "s"
      ],
      [
        "Ġlet",
        "ter"
      ],
      [
        "??",
        "?"
      ],
      [
        "Ġsy",
        "m"
      ],
      [
        "Ġpay",
        "ing"
      ],
      [
        "Ġstupid",
        "ity"
      ],
      [
        "Ġrec",
        "ently"
      ],
      [
        "ne",
        "y"
      ],
      [
        "Ġterror",
        "ism"
      ],
      [
        "man",
        "y"
      ],
      [
        "olog",
        "ical"
      ],
      [
        "Ġbeh",
        "av"
      ],
      [
        "Ġ3",
        "0"
      ],
      [
        "Ġask",
        "ing"
      ],
      [
        "Ġtrans",
        "g"
      ],
      [
        "Ġquest",
        "ions"
      ],
      [
        "Ġopp",
        "os"
      ],
      [
        "Ġprog",
        "ress"
      ],
      [
        "Ġpriv",
        "ile"
      ],
      [
        "Ġwa",
        "iting"
      ],
      [
        "Ġcur",
        "rent"
      ],
      [
        "Ġserv",
        "ices"
      ],
      [
        "Ġstre",
        "ets"
      ],
      [
        "Ġjo",
        "ke"
      ],
      [
        "Ġspec",
        "ific"
      ],
      [
        "Ġrequ",
        "ired"
      ],
      [
        "Ġcho",
        "ice"
      ],
      [
        "Ġserious",
        "ly"
      ],
      [
        "Ġextrem",
        "e"
      ],
      [
        "Ġsol",
        "ution"
      ],
      [
        "Ġarg",
        "ument"
      ],
      [
        "Ġpolic",
        "y"
      ],
      [
        "Ġcrit",
        "ic"
      ],
      [
        "Ġruss",
        "ian"
      ],
      [
        "201",
        "7"
      ],
      [
        "Ġrul",
        "es"
      ],
      [
        "Ġsurpr",
        "ised"
      ],
      [
        "Ġmonth",
        "s"
      ],
      [
        "Ġho",
        "ly"
      ],
      [
        "Ġinform",
        "ation"
      ],
      [
        "Ġbud",
        "get"
      ],
      [
        "Ġeff",
        "ort"
      ],
      [
        "Ġcust",
        "om"
      ],
      [
        "Ġdisag",
        "ree"
      ],
      [
        "Ġfav",
        "or"
      ],
      [
        "Ġalcoh",
        "ol"
      ],
      [
        ".",
        ","
      ],
      [
        "a",
        "ft"
      ],
      [
        "a",
        "rently"
      ],
      [
        "b",
        "el"
      ],
      [
        "c",
        "he"
      ],
      [
        "c",
        "ons"
      ],
      [
        "d",
        "is"
      ],
      [
        "d",
        "om"
      ],
      [
        "i",
        "od"
      ],
      [
        "l",
        "ook"
      ],
      [
        "m",
        "on"
      ],
      [
        "p",
        "ing"
      ],
      [
        "p",
        "ay"
      ],
      [
        "p",
        "end"
      ],
      [
        "s",
        "a"
      ],
      [
        "s",
        "pe"
      ],
      [
        "u",
        "ce"
      ],
      [
        "w",
        "or"
      ],
      [
        "y",
        "ond"
      ],
      [
        "Ġt",
        "re"
      ],
      [
        "in",
        "ing"
      ],
      [
        "in",
        "es"
      ],
      [
        "in",
        "ce"
      ],
      [
        "Ġw",
        "arr"
      ],
      [
        "Ġs",
        "end"
      ],
      [
        "Ġs",
        "ort"
      ],
      [
        "is",
        "a"
      ],
      [
        "at",
        "ory"
      ],
      [
        "Ġc",
        "al"
      ],
      [
        "Ġc",
        "ake"
      ],
      [
        "Ġc",
        "ard"
      ],
      [
        "Ġc",
        "ens"
      ],
      [
        "Ġb",
        "ab"
      ],
      [
        "Ġb",
        "ody"
      ],
      [
        "it",
        "ive"
      ],
      [
        "en",
        "ed"
      ],
      [
        "Ġp",
        "al"
      ],
      [
        "Ġp",
        "ot"
      ],
      [
        "Ġp",
        "ict"
      ],
      [
        "Ġm",
        "cc"
      ],
      [
        "Ġan",
        "al"
      ],
      [
        "Ġf",
        "at"
      ],
      [
        "Ġf",
        "ill"
      ],
      [
        "Ġh",
        "our"
      ],
      [
        "Ġh",
        "ier"
      ],
      [
        "Ġd",
        "i"
      ],
      [
        "Ġd",
        "anger"
      ],
      [
        "ed",
        "s"
      ],
      [
        "al",
        "se"
      ],
      [
        "al",
        "ism"
      ],
      [
        "Ġin",
        "fl"
      ],
      [
        "ar",
        "ily"
      ],
      [
        "Ġl",
        "ol"
      ],
      [
        "Ġl",
        "ad"
      ],
      [
        "Ġl",
        "ate"
      ],
      [
        "Ġre",
        "se"
      ],
      [
        "Ġfor",
        "ward"
      ],
      [
        "st",
        "er"
      ],
      [
        "ver",
        "al"
      ],
      [
        "ur",
        "ance"
      ],
      [
        "Ġwe",
        "alth"
      ],
      [
        "Ġpr",
        "in"
      ],
      [
        "Ġpr",
        "ice"
      ],
      [
        "Ġtr",
        "ust"
      ],
      [
        "Ġtr",
        "ied"
      ],
      [
        "Ġj",
        "ap"
      ],
      [
        "Ġdo",
        "ll"
      ],
      [
        "ate",
        "ver"
      ],
      [
        "Ġk",
        "ing"
      ],
      [
        "th",
        "anks"
      ],
      [
        "Ġse",
        "ll"
      ],
      [
        "Ġse",
        "par"
      ],
      [
        "Ġse",
        "veral"
      ],
      [
        "Ġcom",
        "plain"
      ],
      [
        "Ġsh",
        "ar"
      ],
      [
        "Ġsh",
        "ame"
      ],
      [
        "res",
        "pect"
      ],
      [
        "Ġex",
        "c"
      ],
      [
        "Ġex",
        "e"
      ],
      [
        "ie",
        "ld"
      ],
      [
        "Ġup",
        "on"
      ],
      [
        "Ġev",
        "il"
      ],
      [
        "Ġen",
        "s"
      ],
      [
        "Ġte",
        "ch"
      ],
      [
        "Ġact",
        "ions"
      ],
      [
        "Ġsp",
        "o"
      ],
      [
        "Ġpre",
        "gn"
      ],
      [
        "Ġwr",
        "ite"
      ],
      [
        "Ġwr",
        "iting"
      ],
      [
        "Ġqu",
        "e"
      ],
      [
        "Ġqu",
        "ot"
      ],
      [
        "Ġper",
        "cent"
      ],
      [
        "Ġper",
        "iod"
      ],
      [
        "ace",
        "pt"
      ],
      [
        "ict",
        "ed"
      ],
      [
        "ial",
        "s"
      ],
      [
        "Ġdem",
        "and"
      ],
      [
        "pr",
        "o"
      ],
      [
        "Ġreal",
        "ize"
      ],
      [
        "Ġcontr",
        "acept"
      ],
      [
        "Ġacc",
        "ess"
      ],
      [
        "Ġpa",
        "ul"
      ],
      [
        "iss",
        "ion"
      ],
      [
        "Ġbus",
        "h"
      ],
      [
        "ra",
        "id"
      ],
      [
        "Ġrec",
        "ent"
      ],
      [
        "Ġsuprem",
        "e"
      ],
      [
        "Ġfl",
        "ag"
      ],
      [
        "Ġshow",
        "s"
      ],
      [
        "Ġmin",
        "or"
      ],
      [
        "Ġmin",
        "ority"
      ],
      [
        "Ġunderstand",
        "ing"
      ],
      [
        "Ġleg",
        "isl"
      ],
      [
        "Ġinclud",
        "e"
      ],
      [
        "Ġsm",
        "art"
      ],
      [
        "Ġsub",
        "s"
      ],
      [
        "Ġlead",
        "er"
      ],
      [
        "Ġeas",
        "ily"
      ],
      [
        "Ġsexual",
        "ity"
      ],
      [
        "Ġwa",
        "it"
      ],
      [
        "Ġcost",
        "s"
      ],
      [
        "imate",
        "ly"
      ],
      [
        "Ġval",
        "ue"
      ],
      [
        "Ġfail",
        "ed"
      ],
      [
        "Ġposs",
        "ible"
      ],
      [
        "Ġshoot",
        "ing"
      ],
      [
        "Ġhypocr",
        "isy"
      ],
      [
        "Ġindividual",
        "s"
      ],
      [
        "Ġla",
        "ugh"
      ],
      [
        "Ġsec",
        "urity"
      ],
      [
        "Ġinde",
        "ed"
      ],
      [
        "Ġinde",
        "pend"
      ],
      [
        "Ġcompan",
        "y"
      ],
      [
        "Ġpur",
        "p"
      ],
      [
        "Ġenc",
        "our"
      ],
      [
        "Ġest",
        "ab"
      ],
      [
        "Ġcou",
        "ple"
      ],
      [
        "Ġbeg",
        "in"
      ],
      [
        "Ġprev",
        "ent"
      ],
      [
        "Ġhaw",
        "aii"
      ],
      [
        "Ġweap",
        "ons"
      ],
      [
        "Ġagend",
        "a"
      ],
      [
        "Ġdiff",
        "icult"
      ],
      [
        "mus",
        "lim"
      ],
      [
        "Ġtar",
        "get"
      ],
      [
        "Ġprivile",
        "ge"
      ],
      [
        "Ġhier",
        "arch"
      ],
      [
        "Ġjap",
        "an"
      ],
      [
        "a",
        "pp"
      ],
      [
        "c",
        "il"
      ],
      [
        "d",
        "id"
      ],
      [
        "e",
        "es"
      ],
      [
        "e",
        "ven"
      ],
      [
        "i",
        "j"
      ],
      [
        "i",
        "able"
      ],
      [
        "l",
        "ife"
      ],
      [
        "n",
        "es"
      ],
      [
        "n",
        "ic"
      ],
      [
        "o",
        "ver"
      ],
      [
        "p",
        "it"
      ],
      [
        "p",
        "ed"
      ],
      [
        "r",
        "op"
      ],
      [
        "r",
        "oss"
      ],
      [
        "t",
        "ime"
      ],
      [
        "w",
        "ow"
      ],
      [
        "w",
        "ide"
      ],
      [
        "y",
        "pe"
      ],
      [
        "Ġ",
        "ug"
      ],
      [
        "Ġt",
        "end"
      ],
      [
        "Ġt",
        "ouch"
      ],
      [
        "Ġa",
        "ver"
      ],
      [
        "he",
        "t"
      ],
      [
        "re",
        "w"
      ],
      [
        "Ġw",
        "est"
      ],
      [
        "Ġs",
        "um"
      ],
      [
        "Ġc",
        "ab"
      ],
      [
        "Ġb",
        "ath"
      ],
      [
        "on",
        "es"
      ],
      [
        "it",
        "ut"
      ],
      [
        "it",
        "ter"
      ],
      [
        "it",
        "ish"
      ],
      [
        "Ġp",
        "ain"
      ],
      [
        "Ġp",
        "ure"
[...]
